00000007
0000000A
00000004
00000001
00000000
00000000
00000004
00000006
FFFFFFFC
00000001
00000001
00000005
FFFFFFFF
FFFFFFF9
00000004
00000005
00000002
FFFFFFFF
00000003
00000003
00000001
00000005
00000000
FFFFFFFE
00000007
00000001
FFFFFFFD
00000002
FFFFFFFF
FFFFFFFE
00000002
00000002
FFFFFFFA
00000006
FFFFFFFD
FFFFFFFC
00000003
FFFFFFFE
FFFFFFFF
00000000
0000000B
00000004
FFFFFFFC
FFFFFFFF
FFFFFFFF
00000005
FFFFFFFF
00000003
00000001
FFFFFFFE
00000003
00000002
00000000
00000001
00000000
FFFFFFFE
FFFFFFFF
FFFFFFFE
00000002
FFFFFFFF
FFFFFFFE
FFFFFFFE
00000004
00000003
00000006
00000007
00000001
00000001
FFFFFFFD
00000000
00000004
FFFFFFFF
00000009
00000003
00000008
00000007
00000004
FFFFFFFD
FFFFFFFE
00000004
00000006
00000003
00000002
00000000
00000003
00000001
00000006
00000004
00000003
00000001
00000000
00000001
FFFFFFFC
00000005
00000001
FFFFFFFB
00000001
00000002
00000000
00000004
00000008
FFFFFFFF
FFFFFFFB
FFFFFFF9
00000004
00000002
00000002
00000008
00000004
FFFFFFFB
FFFFFFFC
FFFFFFFE
00000004
00000001
00000001
FFFFFFFF
FFFFFFFF
FFFFFFFE
00000005
00000002
00000000
FFFFFFFF
00000006
00000004
00000007
00000000
00000006
FFFFFFFD
