00000001
00000002
FFFFFFFF
00000001
00000002
00000001
00000000
00000002
FFFFFFFF
00000001
00000000
00000001
FFFFFFFE
00000000
FFFFFFFF
FFFFFFFE
00000001
FFFFFFFF
00000001
FFFFFFFF
FFFFFFFE
00000001
00000001
00000001
00000002
00000001
00000000
00000001
00000001
00000000
FFFFFFFE
00000000
FFFFFFFE
FFFFFFFF
FFFFFFFE
FFFFFFFF
00000001
FFFFFFFE
FFFFFFFE
00000002
00000000
00000002
00000003
00000003
00000000
00000002
00000000
FFFFFFFE
FFFFFFFF
FFFFFFFE
FFFFFFFE
FFFFFFFF
00000001
FFFFFFFE
FFFFFFFF
FFFFFFFF
00000001
00000001
FFFFFFFF
00000002
00000004
00000000
FFFFFFFE
FFFFFFFE
00000001
FFFFFFFE
FFFFFFFB
FFFFFFFB
FFFFFFFD
FFFFFFFA
FFFFFFFB
FFFFFFFC
FFFFFFFB
FFFFFFFC
00000000
FFFFFFFA
FFFFFFF8
FFFFFFFA
FFFFFFFB
FFFFFFFA
FFFFFFFD
00000000
00000002
FFFFFFFE
00000001
00000000
00000002
00000004
00000006
FFFFFFFC
FFFFFFFB
FFFFFFFD
FFFFFFFB
FFFFFFF6
FFFFFFFA
FFFFFFFA
00000000
FFFFFFFF
FFFFFFFE
FFFFFFFE
00000001
00000002
00000006
FFFFFFFC
FFFFFFFE
FFFFFFFC
FFFFFFFE
00000000
FFFFFFFE
00000005
FFFFFFFF
00000001
00000000
FFFFFFFE
00000003
00000008
00000003
FFFFFFFF
FFFFFFFB
FFFFFFFA
FFFFFFF7
FFFFFFF2
FFFFFFF5
FFFFFFFD
FFFFFFFD
00000001
00000004
00000004
00000000
00000000
FFFFFFFD
FFFFFFFF
00000000
00000000
00000003
00000001
00000001
FFFFFFFE
00000000
FFFFFFFC
00000001
00000000
00000004
00000005
00000003
00000004
00000002
00000002
FFFFFFFB
FFFFFFFE
FFFFFFFD
FFFFFFFD
FFFFFFFA
FFFFFFFD
00000000
00000000
FFFFFFFC
FFFFFFFF
FFFFFFFE
FFFFFFFE
FFFFFFFE
FFFFFFFE
00000000
00000001
FFFFFFFE
00000000
FFFFFFFD
FFFFFFFC
00000001
FFFFFFFD
00000000
00000002
00000003
00000006
00000008
00000005
00000000
FFFFFFFC
FFFFFFF9
FFFFFFFB
FFFFFFF9
00000000
00000000
00000000
00000000
00000003
00000006
00000002
00000006
00000001
00000002
00000001
00000003
00000002
00000002
00000000
00000000
FFFFFFFF
00000001
00000006
FFFFFFFF
00000002
00000001
00000001
FFFFFFF9
FFFFFFFA
FFFFFFFA
FFFFFFF9
00000000
00000002
00000005
00000004
00000005
00000005
00000007
00000004
00000006
00000000
00000003
00000003
FFFFFFFF
FFFFFFFF
00000000
FFFFFFFF
FFFFFFFC
00000005
00000000
00000002
FFFFFFFF
FFFFFFFE
00000003
00000003
FFFFFFFF
FFFFFFFD
FFFFFFF7
FFFFFFFB
00000000
00000006
00000006
00000007
00000007
00000008
00000007
00000006
00000005
00000002
00000004
00000003
00000007
00000001
FFFFFFFF
00000005
00000007
00000003
FFFFFFFE
FFFFFFFF
FFFFFFFF
00000000
00000000
00000001
00000000
FFFFFFFD
FFFFFFF9
FFFFFFFC
00000002
00000008
00000007
00000005
00000007
00000009
00000004
00000005
00000005
00000003
00000003
00000003
00000008
00000006
FFFFFFFD
00000000
00000006
00000006
00000005
FFFFFFFC
00000002
FFFFFFFC
FFFFFFFC
FFFFFFFC
FFFFFFFC
FFFFFFFB
FFFFFFFB
FFFFFFFE
00000001
00000004
00000005
00000004
00000005
00000003
00000008
00000004
00000005
00000005
00000007
00000005
00000008
00000009
00000006
00000003
00000005
00000001
00000004
00000004
00000001
FFFFFFFD
FFFFFFFC
FFFFFFFC
FFFFFFFA
FFFFFFFB
FFFFFFFB
FFFFFFFD
FFFFFFFA
00000000
00000001
00000002
00000004
00000005
00000006
00000004
00000002
00000003
00000006
00000006
00000009
0000000F
0000000C
00000005
00000001
00000002
00000002
00000007
00000002
FFFFFFFF
FFFFFFFA
FFFFFFF9
FFFFFFFC
FFFFFFFD
FFFFFFFD
FFFFFFFF
FFFFFFF7
FFFFFFF6
FFFFFFFF
00000004
FFFFFFFE
00000002
00000001
FFFFFFFE
FFFFFFFE
FFFFFFFA
FFFFFFFB
00000000
00000002
00000008
00000009
00000002
00000000
00000000
00000001
00000005
00000002
FFFFFFFC
FFFFFFFD
FFFFFFFC
00000000
00000000
FFFFFFFF
FFFFFFFF
FFFFFFF9
FFFFFFFA
00000003
00000000
FFFFFFFE
FFFFFFFE
FFFFFFFA
FFFFFFFC
FFFFFFFA
FFFFFFF9
FFFFFFF5
FFFFFFF7
FFFFFFFB
00000005
00000001
FFFFFFFE
00000000
00000001
00000002
00000001
FFFFFFFF
00000002
00000000
FFFFFFFE
FFFFFFFE
00000000
FFFFFFFF
FFFFFFFF
FFFFFFFC
FFFFFFFC
00000003
00000005
FFFFFFFF
FFFFFFFA
FFFFFFFD
FFFFFFFE
FFFFFFFD
FFFFFFFB
FFFFFFF6
FFFFFFF6
FFFFFFFB
00000001
FFFFFFFB
FFFFFFFF
00000001
FFFFFFFF
FFFFFFFF
FFFFFFFF
00000004
00000006
00000006
00000001
FFFFFFFE
FFFFFFFF
00000001
FFFFFFFE
FFFFFFFE
FFFFFFFE
00000000
00000002
00000000
FFFFFFFF
00000000
FFFFFFF9
FFFFFFFC
FFFFFFF7
FFFFFFF5
FFFFFFFA
FFFFFFFA
FFFFFFFC
FFFFFFFF
FFFFFFFD
00000002
FFFFFFFE
FFFFFFFB
FFFFFFFC
00000007
00000007
00000005
FFFFFFFE
FFFFFFFE
FFFFFFFD
FFFFFFFE
FFFFFFFE
00000000
FFFFFFFE
00000001
00000000
00000000
FFFFFFFF
00000000
FFFFFFFA
FFFFFFF6
FFFFFFF1
FFFFFFF1
FFFFFFF4
FFFFFFFA
FFFFFFFB
FFFFFFFE
00000000
FFFFFFFE
00000000
FFFFFFF9
FFFFFFFD
00000007
00000004
00000003
00000002
FFFFFFFF
00000001
00000000
00000000
FFFFFFFE
FFFFFFFF
00000003
00000003
00000003
00000001
00000000
FFFFFFFA
FFFFFFF4
FFFFFFF0
FFFFFFF3
FFFFFFFA
FFFFFFFE
00000001
00000002
FFFFFFFE
00000005
00000001
00000002
FFFFFFF6
FFFFFFFF
00000001
00000003
00000001
00000000
00000002
00000001
00000000
FFFFFFFF
00000003
00000007
00000005
00000004
00000003
FFFFFFFF
FFFFFFF7
FFFFFFF3
FFFFFFF2
FFFFFFF5
FFFFFFFB
FFFFFFFC
00000002
00000004
00000001
00000001
00000007
00000007
FFFFFFF7
FFFFFFFC
FFFFFFFF
00000002
00000001
FFFFFFFE
00000000
FFFFFFFD
FFFFFFFC
00000003
00000006
00000006
00000005
00000003
00000003
FFFFFFFC
FFFFFFF2
FFFFFFF3
FFFFFFF2
FFFFFFFA
FFFFFFFB
00000001
00000007
00000002
00000002
FFFFFFFF
00000004
FFFFFFF9
FFFFFFF7
FFFFFFFA
FFFFFFFF
00000003
FFFFFFFF
00000002
FFFFFFFE
FFFFFFFE
FFFFFFFD
00000002
00000007
00000008
00000003
00000000
00000000
FFFFFFF6
FFFFFFEE
FFFFFFEE
FFFFFFF4
FFFFFFFC
FFFFFFFA
00000004
00000008
00000001
00000001
00000003
FFFFFFFC
FFFFFFFA
FFFFFFF9
FFFFFFFB
FFFFFFFE
00000002
00000004
FFFFFFFE
FFFFFFFE
FFFFFFFE
00000000
00000004
00000004
00000005
00000006
FFFFFFFD
FFFFFFFD
FFFFFFEF
FFFFFFEE
FFFFFFF5
FFFFFFF9
FFFFFFF8
FFFFFFFC
00000002
00000008
00000000
00000002
00000000
FFFFFFFF
FFFFFFF9
FFFFFFFA
FFFFFFFE
FFFFFFFF
00000005
00000004
00000000
00000000
00000002
00000000
00000003
00000006
00000009
00000003
FFFFFFFB
FFFFFFF7
FFFFFFE9
FFFFFFEE
FFFFFFF7
FFFFFFFA
FFFFFFF6
FFFFFFFC
00000004
FFFFFFFF
FFFFFFFD
00000000
FFFFFFFF
00000001
FFFFFFFC
FFFFFFFA
FFFFFFFE
00000002
00000002
00000002
FFFFFFFE
FFFFFFFC
FFFFFFFD
FFFFFFFF
00000000
00000001
00000002
00000000
FFFFFFF6
FFFFFFF3
FFFFFFEA
FFFFFFEC
FFFFFFF4
FFFFFFF5
FFFFFFFF
FFFFFFFD
00000002
00000001
00000001
00000001
00000002
00000002
00000002
00000000
00000006
00000008
00000000
00000001
FFFFFFFF
FFFFFFFA
00000001
FFFFFFFF
00000003
FFFFFFFF
FFFFFFFE
FFFFFFFF
FFFFFFF5
FFFFFFF4
FFFFFFEC
FFFFFFEF
FFFFFFF2
FFFFFFF5
FFFFFFF9
FFFFFFFF
FFFFFFFF
FFFFFFFC
FFFFFFFF
00000000
FFFFFFFF
00000001
FFFFFFFE
00000005
00000003
00000004
FFFFFFFE
00000004
00000008
00000007
00000000
00000005
00000005
00000002
00000000
FFFFFFFF
FFFFFFFD
FFFFFFFC
FFFFFFF6
FFFFFFF9
FFFFFFFA
FFFFFFFC
FFFFFFFF
00000000
00000002
00000001
FFFFFFFE
00000001
00000000
FFFFFFFF
FFFFFFFF
00000004
FFFFFFFE
FFFFFFFF
00000003
00000007
0000000B
0000000B
00000009
00000008
00000008
00000010
00000012
00000008
00000006
00000009
0000000B
00000006
00000003
00000000
00000003
FFFFFFFF
FFFFFFFC
00000004
FFFFFFFE
00000001
FFFFFFFF
00000000
00000000
00000002
00000005
00000007
00000006
00000005
00000006
00000007
00000009
00000007
00000008
00000009
0000000E
00000007
00000004
00000005
00000006
00000004
00000000
FFFFFFFF
00000001
FFFFFFFF
00000001
00000001
FFFFFFFF
00000001
00000001
FFFFFFFE
FFFFFFFF
00000000
00000000
FFFFFFFF
FFFFFFFF
FFFFFFFF
FFFFFFFF
FFFFFFFF
00000001
FFFFFFFF
00000001
00000002
00000002
FFFFFFFE
00000000
00000001
00000001
FFFFFFFE
FFFFFFFF
00000001
00000000
00000000
00000002
00000000
FFFFFFFF
00000001
00000001
00000000
00000002
00000002
00000001
00000001
00000001
00000002
FFFFFFFD
FFFFFFFE
00000000
00000003
00000007
00000004
00000005
00000002
FFFFFFFD
FFFFFFFC
00000006
0000000A
0000000A
00000007
00000002
00000001
FFFFFFFF
FFFFFFFE
FFFFFFFF
FFFFFFFF
00000000
00000000
00000002
00000004
00000006
00000002
00000002
FFFFFFFF
FFFFFFFD
FFFFFFF8
FFFFFFF8
FFFFFFFD
FFFFFFF8
FFFFFFFC
00000001
FFFFFFFF
00000003
00000001
00000005
0000000B
00000005
00000006
0000000C
00000003
FFFFFFFE
FFFFFFFB
FFFFFFFF
FFFFFFFF
00000000
FFFFFFFF
FFFFFFFF
00000003
00000005
FFFFFFFD
00000000
FFFFFFFC
FFFFFFF4
FFFFFFF0
FFFFFFF0
FFFFFFF1
FFFFFFF4
FFFFFFF7
FFFFFFF9
FFFFFFFD
FFFFFFFB
00000000
00000000
00000002
FFFFFFFF
00000007
00000009
00000007
00000005
FFFFFFFF
00000005
00000001
FFFFFFFF
00000001
FFFFFFFD
FFFFFFFB
FFFFFFFE
00000000
FFFFFFFB
FFFFFFF6
FFFFFFEE
FFFFFFEF
FFFFFFF0
FFFFFFF3
FFFFFFF9
FFFFFFFD
FFFFFFFF
FFFFFFFD
FFFFFFFA
FFFFFFFD
FFFFFFFF
FFFFFFFF
FFFFFFFE
00000003
00000003
0000000C
0000000A
00000005
FFFFFFFE
00000000
FFFFFFFF
00000000
FFFFFFFC
FFFFFFFD
FFFFFFFD
00000000
FFFFFFFC
FFFFFFF2
FFFFFFEB
FFFFFFF1
FFFFFFF3
FFFFFFFD
FFFFFFFF
00000002
00000003
FFFFFFFF
FFFFFFFF
FFFFFFFF
FFFFFFFE
00000000
00000003
00000001
00000000
00000007
00000008
00000004
00000006
00000007
00000001
FFFFFFFA
00000002
FFFFFFFC
FFFFFFFC
00000001
FFFFFFF8
FFFFFFEE
FFFFFFEC
FFFFFFED
FFFFFFF6
00000000
00000003
00000003
00000006
00000003
00000000
00000000
00000002
00000004
00000006
FFFFFFFF
00000003
00000008
00000009
0000000A
0000000B
00000003
00000001
FFFFFFF6
FFFFFFFE
FFFFFFFE
00000001
FFFFFFFE
FFFFFFF7
FFFFFFEC
FFFFFFEF
FFFFFFF1
FFFFFFFB
00000002
00000003
00000003
00000005
00000002
00000002
00000004
00000002
00000001
00000005
00000002
00000002
00000008
00000006
00000008
00000008
00000001
FFFFFFFF
FFFFFFF7
FFFFFFFC
FFFFFFFF
00000001
FFFFFFFB
FFFFFFFB
FFFFFFEF
FFFFFFEF
FFFFFFF6
FFFFFFF8
00000002
00000004
00000008
00000002
00000000
FFFFFFFE
FFFFFFFE
00000000
00000000
00000003
00000003
FFFFFFFE
00000006
0000000D
00000007
00000006
00000001
FFFFFFFE
FFFFFFF9
FFFFFFF6
FFFFFFF9
00000002
FFFFFFFA
FFFFFFF6
FFFFFFF2
FFFFFFEC
FFFFFFEF
FFFFFFF9
00000005
00000007
0000000A
00000004
00000001
FFFFFFFC
FFFFFFF8
FFFFFFF9
FFFFFFF9
FFFFFFFA
FFFFFFFF
FFFFFFFE
FFFFFFFF
00000009
00000006
00000000
00000000
FFFFFFFD
FFFFFFFC
FFFFFFFE
FFFFFFFE
FFFFFFFF
FFFFFFFC
FFFFFFF3
FFFFFFEF
FFFFFFEE
FFFFFFEF
FFFFFFFE
00000007
0000000C
0000000C
00000009
00000002
FFFFFFFC
FFFFFFF5
FFFFFFF4
FFFFFFF3
FFFFFFF1
FFFFFFF2
FFFFFFF6
FFFFFFF8
00000001
00000000
00000005
00000000
FFFFFFFB
00000004
00000000
FFFFFFFF
00000001
FFFFFFFF
FFFFFFF8
FFFFFFF4
FFFFFFED
FFFFFFF0
FFFFFFFE
00000004
00000008
00000007
00000003
FFFFFFFE
FFFFFFFD
FFFFFFF6
FFFFFFF4
FFFFFFF0
FFFFFFED
FFFFFFEB
FFFFFFEA
FFFFFFEF
FFFFFFF4
FFFFFFF9
00000001
00000004
FFFFFFFF
00000001
00000004
00000002
00000003
FFFFFFFD
FFFFFFF9
FFFFFFF0
FFFFFFF0
FFFFFFF5
00000001
00000007
00000009
00000008
00000005
FFFFFFFF
FFFFFFFC
FFFFFFFA
FFFFFFF9
FFFFFFF5
FFFFFFF7
FFFFFFF4
FFFFFFED
FFFFFFEA
FFFFFFEF
FFFFFFFA
FFFFFFFF
FFFFFFFC
00000002
00000001
00000002
00000002
00000002
FFFFFFFD
FFFFFFFB
FFFFFFF9
FFFFFFF7
FFFFFFFB
00000001
00000004
00000009
00000008
00000006
00000003
00000001
FFFFFFFC
FFFFFFF9
FFFFFFFE
00000001
FFFFFFF9
FFFFFFF2
FFFFFFF3
FFFFFFF6
FFFFFFFA
FFFFFFFA
FFFFFFFC
00000003
FFFFFFFF
00000002
00000003
FFFFFFFF
00000000
FFFFFFFC
FFFFFFFB
FFFFFFF8
FFFFFFFE
00000001
00000003
00000002
00000004
00000003
00000003
00000003
00000000
FFFFFFFF
FFFFFFFB
00000004
FFFFFFFC
FFFFFFF6
FFFFFFF9
FFFFFFFC
FFFFFFFB
FFFFFFF7
FFFFFFFF
00000002
00000003
00000000
00000003
00000004
00000001
FFFFFFFE
FFFFFFFC
FFFFFFFC
FFFFFFFC
FFFFFFFD
FFFFFFFC
00000002
00000001
00000005
00000001
00000003
00000000
00000002
FFFFFFFE
00000004
00000003
00000003
00000001
FFFFFFFF
FFFFFFFD
FFFFFFF9
FFFFFFFD
00000000
FFFFFFFD
FFFFFFF8
00000003
00000008
00000004
00000002
FFFFFFFE
FFFFFFFD
FFFFFFFA
FFFFFFFC
00000001
FFFFFFFF
00000002
00000003
00000006
00000000
00000000
00000004
00000001
00000002
00000003
00000001
00000003
FFFFFFFA
FFFFFFF3
FFFFFFF7
FFFFFFFA
00000001
FFFFFFFD
FFFFFFFC
00000004
00000004
00000003
00000007
00000005
00000000
00000001
00000004
00000001
FFFFFFFD
00000000
00000007
00000008
00000003
00000001
00000003
00000001
FFFFFFFF
FFFFFFFC
FFFFFFFE
00000001
FFFFFFFD
FFFFFFF3
FFFFFFFD
FFFFFFFE
FFFFFFFE
FFFFFFFD
FFFFFFFB
FFFFFFFD
00000005
00000006
00000005
00000007
00000004
00000001
00000001
00000001
FFFFFFFF
00000000
00000005
00000005
00000001
00000000
00000003
FFFFFFFE
00000000
FFFFFFFD
FFFFFFFA
00000000
FFFFFFFC
FFFFFFFC
FFFFFFFF
00000001
00000003
FFFFFFFE
FFFFFFFE
FFFFFFF8
00000000
00000000
00000004
00000000
00000001
FFFFFFFD
FFFFFFFD
00000000
00000000
00000000
00000005
00000001
00000000
00000001
00000000
00000000
FFFFFFFE
FFFFFFFC
FFFFFFF8
FFFFFFFD
00000001
00000002
FFFFFFFF
00000001
00000002
00000001
00000002
FFFFFFF3
FFFFFFFF
00000002
FFFFFFFF
FFFFFFFD
00000000
00000000
FFFFFFFF
FFFFFFFF
FFFFFFFD
FFFFFFFD
FFFFFFFF
FFFFFFFF
00000001
00000005
00000002
00000001
FFFFFFFD
FFFFFFF8
FFFFFFFD
00000002
FFFFFFFF
FFFFFFFF
00000000
00000000
00000002
FFFFFFFF
FFFFFFFA
FFFFFFF6
FFFFFFFF
00000000
FFFFFFFD
FFFFFFFC
FFFFFFFE
00000002
FFFFFFFF
00000000
00000000
00000000
00000003
00000001
00000001
00000003
FFFFFFFE
FFFFFFFE
FFFFFFFF
FFFFFFFB
FFFFFFF9
FFFFFFFE
FFFFFFFF
00000001
FFFFFFFD
00000000
00000004
FFFFFFFE
FFFFFFF5
FFFFFFFD
FFFFFFFC
FFFFFFFD
FFFFFFFB
FFFFFFFA
FFFFFFFF
00000003
00000002
00000003
00000001
00000000
00000002
00000000
00000005
00000003
00000000
FFFFFFFF
00000001
FFFFFFF9
FFFFFFFA
00000002
00000001
FFFFFFFD
FFFFFFFF
FFFFFFFE
00000002
00000000
FFFFFFF5
FFFFFFFB
FFFFFFFE
FFFFFFFE
FFFFFFFF
FFFFFFFA
00000001
00000001
00000004
00000001
00000001
00000002
00000004
00000002
00000002
00000004
00000000
00000001
00000002
FFFFFFFD
FFFFFFFC
00000001
FFFFFFFA
FFFFFFFA
FFFFFFFE
00000000
00000000
00000001
FFFFFFF9
FFFFFFFA
FFFFFFFA
00000003
FFFFFFFF
00000003
00000001
00000002
00000001
FFFFFFFC
00000001
FFFFFFFF
FFFFFFFE
FFFFFFFE
00000000
00000000
00000004
00000002
00000002
FFFFFFFF
00000001
00000005
00000004
FFFFFFFC
FFFFFFFC
FFFFFFFF
00000001
00000000
FFFFFFFF
FFFFFFFD
FFFFFFF9
FFFFFFFF
FFFFFFFC
FFFFFFFA
FFFFFFFB
FFFFFFFC
FFFFFFFC
FFFFFFFD
FFFFFFFD
FFFFFFFD
FFFFFFFB
FFFFFFFB
FFFFFFFA
FFFFFFFD
FFFFFFFD
FFFFFFFB
00000001
00000003
00000007
00000006
00000002
FFFFFFFD
FFFFFFFF
FFFFFFFF
FFFFFFFE
00000000
00000002
00000002
00000008
0000000A
00000006
00000001
FFFFFFFC
00000000
FFFFFFFF
FFFFFFFD
00000003
00000001
FFFFFFFD
FFFFFFFC
00000006
00000008
00000001
00000000
00000003
00000001
FFFFFFFF
FFFFFFFD
00000002
FFFFFFFD
00000000
FFFFFFFE
00000001
00000000
FFFFFFFE
FFFFFFFE
00000000
00000002
FFFFFFFB
FFFFFFFB
FFFFFFFE
FFFFFFFC
FFFFFFFF
FFFFFFFC
00000000
00000002
00000004
00000002
00000001
FFFFFFFF
FFFFFFFB
FFFFFFFD
00000001
00000001
FFFFFFFF
00000001
FFFFFFFE
00000000
00000001
00000001
00000000
00000002
FFFFFFFE
00000001
00000000
00000000
FFFFFFFF
FFFFFFFF
00000002
FFFFFFFE
00000002
00000002
00000002
00000000
00000000
00000000
00000001
FFFFFFFF
00000000
00000001
00000001
FFFFFFFE
FFFFFFFF
FFFFFFFE
FFFFFFFF
00000000
00000000
00000001
FFFFFFFF
00000001
00000001
00000000
00000000
00000002
00000003
00000002
00000003
00000005
00000004
00000007
00000008
00000005
FFFFFFFE
00000000
FFFFFFFF
00000001
00000004
00000007
00000006
00000004
00000005
00000005
FFFFFFFF
FFFFFFFF
00000001
FFFFFFFF
00000001
00000000
00000000
00000003
00000004
00000001
00000006
00000006
00000004
00000001
00000001
00000006
0000000A
00000008
00000007
00000002
00000002
00000002
00000002
00000003
00000002
00000003
00000006
00000001
FFFFFFFF
FFFFFFFE
00000000
FFFFFFFF
00000002
FFFFFFFE
00000000
FFFFFFFF
00000003
FFFFFFFD
FFFFFFFD
FFFFFFFF
FFFFFFFD
00000004
00000000
00000006
00000003
00000006
00000005
00000004
00000001
FFFFFFFD
FFFFFFF9
FFFFFFF8
FFFFFFFE
00000003
00000003
00000007
00000003
FFFFFFFD
00000000
00000001
FFFFFFFF
00000002
00000001
FFFFFFFD
00000000
FFFFFFF7
FFFFFFF9
FFFFFFFC
FFFFFFFC
00000003
00000001
00000001
00000002
00000002
00000004
00000000
00000001
FFFFFFFF
FFFFFFFA
FFFFFFFE
FFFFFFFF
00000003
00000004
00000006
00000006
00000003
00000004
00000007
00000001
00000002
00000002
FFFFFFFE
FFFFFFFB
FFFFFFF8
FFFFFFFC
FFFFFFFF
00000000
00000005
00000007
00000003
00000005
00000002
00000002
FFFFFFFD
FFFFFFFB
FFFFFFFD
FFFFFFFB
FFFFFFFD
FFFFFFF9
FFFFFFFE
00000000
00000005
00000007
00000008
00000005
00000006
00000000
FFFFFFFE
00000001
FFFFFFFD
FFFFFFFA
FFFFFFFB
FFFFFFF9
FFFFFFFC
FFFFFFFF
00000001
00000004
00000008
00000003
FFFFFFFD
FFFFFFFE
FFFFFFF8
FFFFFFF4
FFFFFFF6
FFFFFFF7
FFFFFFFA
FFFFFFFB
FFFFFFFC
00000001
00000006
00000007
00000005
00000001
00000002
FFFFFFFF
FFFFFFFD
00000001
FFFFFFFC
FFFFFFFA
FFFFFFFE
FFFFFFFA
FFFFFFFE
00000002
00000004
0000000A
00000008
00000000
FFFFFFFD
FFFFFFF7
FFFFFFF6
FFFFFFF5
FFFFFFFB
FFFFFFFF
00000000
FFFFFFFE
FFFFFFFF
00000002
00000004
00000004
00000005
00000009
00000003
00000006
00000001
00000005
00000000
FFFFFFFC
FFFFFFFA
FFFFFFFE
FFFFFFFF
00000002
00000007
00000005
00000004
00000002
FFFFFFFB
FFFFFFF9
FFFFFFF8
FFFFFFF6
FFFFFFFE
FFFFFFFE
00000000
00000003
00000005
00000002
00000003
00000003
00000007
00000006
FFFFFFFC
00000004
00000002
00000007
FFFFFFFC
FFFFFFFB
FFFFFFF8
FFFFFFFB
FFFFFFFD
FFFFFFFF
00000003
00000004
00000008
00000002
FFFFFFFD
FFFFFFFA
FFFFFFF9
FFFFFFFC
00000001
00000003
00000006
00000004
00000006
00000003
00000002
00000009
0000000F
00000006
FFFFFFFB
00000004
00000006
00000007
00000003
00000000
FFFFFFF9
FFFFFFF8
FFFFFFFC
FFFFFFFE
00000004
00000008
00000006
00000002
00000000
FFFFFFFB
FFFFFFFD
FFFFFFFD
00000005
00000005
00000003
00000005
00000003
00000005
00000004
00000006
00000004
00000001
FFFFFFFD
00000002
00000006
00000005
FFFFFFFE
FFFFFFFC
FFFFFFF7
FFFFFFF9
FFFFFFFE
FFFFFFFC
00000003
00000003
00000005
00000005
00000000
FFFFFFFC
FFFFFFFB
FFFFFFFF
00000001
00000002
00000002
FFFFFFFC
FFFFFFFF
00000001
00000003
00000004
FFFFFFFF
FFFFFFFC
FFFFFFFD
00000002
00000004
00000003
FFFFFFFF
FFFFFFF9
FFFFFFF9
FFFFFFFA
FFFFFFFF
FFFFFFFF
00000003
00000003
00000004
00000005
FFFFFFFE
FFFFFFFB
FFFFFFFE
FFFFFFFD
00000000
00000004
FFFFFFFF
FFFFFFFF
00000001
00000001
00000002
0000000C
00000003
FFFFFFFD
FFFFFFF7
00000001
00000001
00000001
FFFFFFFD
FFFFFFF7
FFFFFFFC
FFFFFFFE
00000000
00000001
00000006
00000005
00000003
00000003
FFFFFFFD
FFFFFFFC
FFFFFFFE
FFFFFFFF
00000000
00000000
00000003
00000000
00000002
00000004
00000003
00000007
00000004
FFFFFFFF
FFFFFFFB
00000000
00000000
FFFFFFFD
FFFFFFFD
FFFFFFF7
FFFFFFFE
FFFFFFFE
00000000
00000000
00000001
00000004
00000002
00000000
FFFFFFFB
FFFFFFFE
FFFFFFFE
00000000
FFFFFFFF
FFFFFFFF
00000002
00000002
00000004
00000004
00000007
00000005
00000001
FFFFFFF9
FFFFFFFF
00000003
00000002
FFFFFFFF
00000000
FFFFFFFC
FFFFFFFD
00000000
00000003
00000000
00000000
00000000
00000000
FFFFFFFF
FFFFFFFF
00000002
FFFFFFFE
FFFFFFFC
00000001
00000002
FFFFFFFF
00000000
00000001
00000001
00000001
FFFFFFFF
00000000
FFFFFFF8
FFFFFFFC
00000003
FFFFFFFE
FFFFFFFD
00000000
FFFFFFFE
FFFFFFFC
00000000
00000002
00000001
00000001
FFFFFFFE
00000000
00000001
00000002
00000007
00000003
FFFFFFFE
00000000
FFFFFFFF
FFFFFFFE
FFFFFFFF
FFFFFFFE
FFFFFFFA
FFFFFFFB
FFFFFFFC
FFFFFFFE
FFFFFFF5
FFFFFFFF
FFFFFFFF
00000000
00000000
FFFFFFFD
FFFFFFFE
FFFFFFFE
FFFFFFFF
00000000
00000000
FFFFFFFE
FFFFFFFE
00000000
00000003
00000006
00000006
00000001
FFFFFFFE
FFFFFFFF
00000001
00000002
00000000
FFFFFFFF
FFFFFFFC
FFFFFFFE
FFFFFFFF
00000001
FFFFFFF9
FFFFFFF9
FFFFFFFF
00000001
FFFFFFFB
FFFFFFFB
FFFFFFFD
FFFFFFFC
FFFFFFFD
FFFFFFFC
FFFFFFFF
FFFFFFFF
FFFFFFFC
00000002
00000008
00000009
00000002
FFFFFFFC
FFFFFFFC
FFFFFFFB
00000002
FFFFFFFF
FFFFFFFF
FFFFFFFD
FFFFFFFC
FFFFFFFE
00000000
00000000
FFFFFFFF
FFFFFFFC
00000000
00000004
FFFFFFFB
FFFFFFFC
FFFFFFF8
FFFFFFF7
FFFFFFFA
FFFFFFFA
FFFFFFFD
00000000
00000000
00000006
00000007
00000007
00000001
FFFFFFFC
FFFFFFF7
FFFFFFFD
FFFFFFFF
FFFFFFFF
FFFFFFFD
FFFFFFFB
FFFFFFFB
FFFFFFFC
FFFFFFFD
FFFFFFFF
FFFFFFFC
FFFFFFFE
00000002
00000000
FFFFFFFF
FFFFFFFA
FFFFFFF7
FFFFFFF9
FFFFFFFA
FFFFFFF9
FFFFFFFE
00000000
00000005
0000000A
0000000B
00000006
00000001
FFFFFFFE
FFFFFFF9
FFFFFFFE
00000000
00000000
00000000
FFFFFFFA
FFFFFFFD
FFFFFFFC
FFFFFFFA
FFFFFFFB
FFFFFFFD
FFFFFFFE
FFFFFFFF
FFFFFFFF
FFFFFFFD
FFFFFFFD
FFFFFFF6
FFFFFFF8
FFFFFFFB
FFFFFFFA
FFFFFFFD
00000002
00000006
00000007
00000006
00000003
00000002
FFFFFFFE
FFFFFFFB
00000001
00000001
FFFFFFFD
00000000
FFFFFFFD
FFFFFFFD
FFFFFFFB
FFFFFFFD
FFFFFFFD
00000003
00000001
00000000
00000001
FFFFFFFF
00000000
FFFFFFFC
FFFFFFF9
FFFFFFFA
FFFFFFFC
FFFFFFFC
FFFFFFFF
00000004
00000004
00000005
00000003
00000004
00000001
00000001
00000001
FFFFFFFF
FFFFFFFE
FFFFFFFB
FFFFFFFD
FFFFFFFB
FFFFFFF9
FFFFFFFB
FFFFFFFF
00000005
00000003
00000002
00000001
FFFFFFFF
FFFFFFFD
FFFFFFFE
FFFFFFFB
FFFFFFFD
FFFFFFFA
FFFFFFFE
00000002
00000002
00000001
00000006
00000005
0000000A
00000005
00000003
00000000
FFFFFFFC
FFFFFFFC
FFFFFFFB
FFFFFFFC
FFFFFFFA
FFFFFFFA
FFFFFFF9
00000001
00000000
FFFFFFFF
00000002
00000000
00000000
FFFFFFF9
FFFFFFFC
FFFFFFFE
FFFFFFF9
FFFFFFF5
FFFFFFFA
FFFFFFFF
FFFFFFFF
00000000
00000005
00000006
00000005
00000003
00000000
FFFFFFFB
FFFFFFF7
FFFFFFF9
FFFFFFFB
FFFFFFFB
FFFFFFFE
FFFFFFFA
FFFFFFFD
FFFFFFFE
FFFFFFFA
00000001
00000002
00000000
FFFFFFFC
FFFFFFFF
FFFFFFFF
FFFFFFFC
FFFFFFFC
FFFFFFFA
FFFFFFF8
FFFFFFFB
00000001
FFFFFFFF
FFFFFFFE
00000000
00000001
00000004
00000001
FFFFFFFC
FFFFFFF8
FFFFFFF8
FFFFFFF8
FFFFFFFE
00000000
FFFFFFFF
00000000
FFFFFFFE
00000002
00000001
00000001
FFFFFFFE
00000001
00000001
FFFFFFFC
FFFFFFF9
FFFFFFFA
FFFFFFF4
FFFFFFF7
FFFFFFFA
FFFFFFF8
FFFFFFF7
FFFFFFF8
FFFFFFFA
FFFFFFF5
FFFFFFFD
FFFFFFFA
FFFFFFF6
FFFFFFF6
FFFFFFFA
FFFFFFFB
FFFFFFFF
FFFFFFFE
00000001
00000003
00000002
00000000
FFFFFFFF
FFFFFFFF
FFFFFFFE
00000001
00000002
00000005
00000007
FFFFFFFE
FFFFFFFE
FFFFFFFD
00000001
FFFFFFFF
FFFFFFFE
FFFFFFFD
00000002
FFFFFFFB
FFFFFFFE
00000001
00000001
FFFFFFFF
00000001
00000002
00000001
00000001
00000003
FFFFFFFF
FFFFFFFF
FFFFFFFF
00000000
00000000
00000001
FFFFFFFE
00000000
FFFFFFFE
00000000
FFFFFFFE
FFFFFFFE
00000001
00000001
00000002
00000001
FFFFFFFE
00000001
FFFFFFFF
00000000
00000002
00000000
00000002
FFFFFFFE
00000002
00000001
00000002
00000000
FFFFFFFF
00000001
FFFFFFFE
00000000
00000001
00000000
FFFFFFFF
00000001
00000000
00000001
FFFFFFFB
FFFFFFFD
FFFFFFFF
FFFFFFFE
00000000
00000000
FFFFFFFB
00000000
00000000
FFFFFFFD
FFFFFFFD
00000000
FFFFFFFF
00000001
FFFFFFFE
FFFFFFFF
FFFFFFFF
FFFFFFFE
00000000
00000002
00000001
00000000
00000000
FFFFFFFF
00000000
FFFFFFFD
FFFFFFFC
00000000
FFFFFFFF
FFFFFFFD
FFFFFFFE
FFFFFFFE
00000000
00000005
00000003
00000005
00000006
FFFFFFFF
00000000
00000002
FFFFFFFF
FFFFFFFF
00000003
00000002
00000001
FFFFFFFF
FFFFFFFF
FFFFFFFE
00000002
00000000
00000002
FFFFFFFF
FFFFFFFE
FFFFFFFC
FFFFFFFF
FFFFFFFC
FFFFFFFA
FFFFFFF7
FFFFFFFB
FFFFFFFF
00000002
00000008
00000004
00000000
00000001
00000001
00000000
00000002
00000001
FFFFFFFD
FFFFFFFC
00000000
00000003
00000001
00000000
00000000
00000002
FFFFFFFE
00000002
FFFFFFFF
00000002
FFFFFFFE
00000001
FFFFFFF6
FFFFFFF7
00000000
FFFFFFFE
00000000
00000001
00000007
00000006
00000006
00000002
00000003
00000004
00000003
00000001
00000000
00000001
00000005
00000004
00000002
00000003
00000000
00000001
00000000
FFFFFFFF
FFFFFFFF
FFFFFFFE
FFFFFFFE
FFFFFFFD
FFFFFFFE
FFFFFFFE
00000001
00000004
00000007
00000005
00000008
00000007
00000003
00000005
00000003
FFFFFFFD
00000001
FFFFFFFE
FFFFFFFB
FFFFFFFA
00000003
00000002
00000000
00000003
FFFFFFFF
FFFFFFFC
00000001
00000001
FFFFFFFF
00000002
FFFFFFFE
00000000
00000002
00000000
00000002
00000005
00000002
00000004
00000007
00000009
00000002
00000000
FFFFFFFF
FFFFFFFE
FFFFFFFE
FFFFFFFE
FFFFFFFD
FFFFFFFC
FFFFFFFC
00000001
00000000
FFFFFFFF
FFFFFFFF
FFFFFFFE
FFFFFFFD
00000001
FFFFFFFE
00000000
FFFFFFFE
FFFFFFF9
00000000
00000001
00000000
00000005
00000005
00000006
00000003
00000000
FFFFFFFC
FFFFFFFB
FFFFFFFD
FFFFFFFF
FFFFFFFF
00000001
FFFFFFFE
FFFFFFFB
FFFFFFFD
00000003
00000000
00000000
FFFFFFFD
00000004
FFFFFFFF
FFFFFFFF
00000001
00000001
00000001
FFFFFFFE
00000001
00000001
00000002
00000002
00000006
00000006
00000006
00000000
FFFFFFF8
FFFFFFF9
FFFFFFFE
FFFFFFFE
FFFFFFFD
FFFFFFFD
FFFFFFFD
FFFFFFFE
00000000
00000002
FFFFFFFC
00000000
00000000
00000000
FFFFFFFD
00000003
00000003
FFFFFFFE
00000000
FFFFFFFF
00000001
00000001
00000000
00000004
00000003
00000008
00000006
FFFFFFFC
FFFFFFF6
FFFFFFF8
FFFFFFFD
FFFFFFFF
FFFFFFFB
00000000
00000000
FFFFFFFF
00000002
FFFFFFFF
FFFFFFFF
00000000
FFFFFFFF
FFFFFFFF
00000001
00000004
00000007
00000002
00000001
00000003
FFFFFFFF
FFFFFFFD
00000000
00000002
0000000A
00000008
00000005
FFFFFFFC
FFFFFFF9
FFFFFFFB
00000002
00000002
FFFFFFFB
FFFFFFFF
00000001
00000001
00000001
00000005
00000003
00000003
00000000
FFFFFFFE
00000000
00000007
00000002
00000007
00000001
00000003
00000001
FFFFFFFF
00000003
00000008
0000000C
0000000D
00000006
FFFFFFFF
FFFFFFFB
00000001
00000006
00000005
00000000
FFFFFFFF
00000000
00000002
00000003
00000008
00000005
00000004
FFFFFFFC
00000001
00000003
00000002
00000002
00000007
00000004
00000004
FFFFFFFE
00000001
00000003
00000008
00000007
00000007
00000005
FFFFFFFC
FFFFFFFA
FFFFFFFF
00000006
00000003
00000000
FFFFFFFF
FFFFFFFF
00000001
00000003
00000005
0000000A
00000002
00000001
00000000
00000001
00000001
00000003
00000006
00000000
00000001
00000002
FFFFFFFF
00000005
00000005
00000004
00000005
00000005
FFFFFFFD
FFFFFFFB
FFFFFFFE
00000002
00000001
00000001
00000000
00000000
00000002
00000002
00000006
00000003
00000001
FFFFFFFF
FFFFFFF8
FFFFFFFD
00000001
00000003
00000009
00000002
00000002
00000004
FFFFFFFF
00000000
00000000
00000003
00000004
00000005
FFFFFFFD
FFFFFFFA
FFFFFFFA
FFFFFFFD
00000000
00000004
00000001
00000001
00000004
00000001
00000005
00000005
FFFFFFFE
FFFFFFFA
FFFFFFFA
FFFFFFFB
00000002
00000001
00000004
FFFFFFFE
00000000
FFFFFFFF
FFFFFFFE
FFFFFFFF
00000002
00000002
00000005
00000005
00000002
FFFFFFFE
FFFFFFF9
FFFFFFFC
00000001
00000002
00000002
00000002
00000002
00000000
00000001
00000002
FFFFFFF9
FFFFFFFD
FFFFFFFD
FFFFFFFB
00000001
00000000
FFFFFFFD
FFFFFFFC
FFFFFFFD
FFFFFFFF
00000000
00000001
00000004
00000000
00000002
00000000
FFFFFFFF
FFFFFFFF
FFFFFFFD
00000001
00000004
00000001
FFFFFFFD
00000000
00000002
FFFFFFFF
00000000
00000000
FFFFFFFB
FFFFFFFB
FFFFFFFB
FFFFFFF9
00000002
FFFFFFFF
00000001
FFFFFFFE
FFFFFFFD
FFFFFFFA
FFFFFFFE
FFFFFFFD
00000001
00000003
00000000
FFFFFFFD
FFFFFFFE
FFFFFFFE
00000001
00000000
00000002
00000000
FFFFFFFF
FFFFFFFE
00000001
00000000
FFFFFFFF
FFFFFFFE
FFFFFFFE
FFFFFFF9
FFFFFFFA
FFFFFFF9
00000002
FFFFFFFB
00000002
00000001
00000000
FFFFFFFD
FFFFFFFD
FFFFFFFC
FFFFFFFE
FFFFFFFE
FFFFFFFE
FFFFFFFC
FFFFFFFE
00000003
00000004
00000001
00000000
FFFFFFFD
FFFFFFFB
FFFFFFFD
00000002
00000001
FFFFFFFE
FFFFFFF9
FFFFFFFB
FFFFFFFB
FFFFFFFB
FFFFFFFF
00000002
00000004
00000002
00000001
00000001
FFFFFFFE
FFFFFFFC
FFFFFFFB
FFFFFFFD
FFFFFFFF
FFFFFFF9
FFFFFFF9
00000000
00000000
00000005
00000003
FFFFFFFA
FFFFFFFC
FFFFFFFE
FFFFFFFE
00000002
00000001
FFFFFFFD
FFFFFFFA
FFFFFFFE
FFFFFFFD
FFFFFFFD
00000000
FFFFFFFF
FFFFFFFE
00000000
FFFFFFFF
00000001
FFFFFFFF
FFFFFFFC
FFFFFFFA
FFFFFFFE
FFFFFFFE
FFFFFFFB
FFFFFFFA
00000000
00000002
00000005
00000002
FFFFFFFD
FFFFFFFB
FFFFFFFC
00000001
FFFFFFFE
FFFFFFFC
FFFFFFFD
FFFFFFFC
FFFFFFFF
00000002
FFFFFFFB
00000001
00000001
FFFFFFFD
FFFFFFFC
FFFFFFFB
FFFFFFFF
00000003
00000000
FFFFFFFC
FFFFFFFE
FFFFFFFF
FFFFFFFE
FFFFFFFB
FFFFFFFF
00000001
00000004
00000002
FFFFFFFD
FFFFFFFE
00000000
FFFFFFFE
FFFFFFFE
00000000
FFFFFFFE
FFFFFFFD
00000003
00000001
FFFFFFFC
00000001
00000001
00000000
FFFFFFFC
00000001
00000001
FFFFFFFF
FFFFFFFE
00000000
FFFFFFFD
FFFFFFFE
FFFFFFFD
FFFFFFFA
FFFFFFFF
00000000
00000004
00000004
00000001
00000000
00000003
FFFFFFFF
FFFFFFFC
FFFFFFFE
FFFFFFFD
FFFFFFFD
FFFFFFFD
FFFFFFFD
FFFFFFFF
FFFFFFFE
00000001
00000000
FFFFFFFD
00000000
00000001
00000003
00000000
FFFFFFFD
00000000
FFFFFFFF
FFFFFFFB
FFFFFFF8
FFFFFFFC
FFFFFFFF
00000004
00000004
00000004
00000003
FFFFFFFE
FFFFFFFE
00000001
00000001
FFFFFFFF
FFFFFFFD
00000001
00000000
FFFFFFFF
FFFFFFFF
00000001
00000000
00000001
00000000
00000001
00000006
00000000
FFFFFFFD
FFFFFFFD
FFFFFFFF
FFFFFFFF
FFFFFFFE
FFFFFFFF
00000000
FFFFFFFE
00000000
00000001
FFFFFFFC
FFFFFFFD
00000004
00000005
FFFFFFFF
00000002
FFFFFFFF
FFFFFFFC
FFFFFFFD
00000000
FFFFFFFF
FFFFFFFF
FFFFFFFE
00000000
00000002
00000000
00000000
00000000
00000000
00000000
00000002
FFFFFFFC
FFFFFFFE
FFFFFFFF
00000000
00000005
00000002
00000002
00000004
00000005
00000003
00000003
00000008
0000000A
00000005
00000004
FFFFFFFE
FFFFFFFF
00000001
FFFFFFFF
00000001
00000001
FFFFFFFF
00000001
FFFFFFFB
FFFFFFFC
00000000
00000001
00000005
00000000
00000000
FFFFFFFE
00000005
00000003
00000002
00000001
FFFFFFFF
00000001
00000004
00000007
00000005
0000000A
00000004
00000006
00000001
00000002
FFFFFFFF
00000001
FFFFFFFF
00000001
FFFFFFFF
00000003
00000006
00000007
00000007
00000007
00000004
00000003
00000003
00000004
00000008
00000003
00000002
00000003
00000007
00000006
00000004
00000006
00000008
00000006
00000003
FFFFFFFF
00000000
00000001
00000001
00000001
00000000
00000001
00000001
FFFFFFFF
FFFFFFFF
FFFFFFFF
FFFFFFFE
00000002
FFFFFFFF
FFFFFFFF
FFFFFFFE
00000001
FFFFFFFF
FFFFFFFF
FFFFFFFF
FFFFFFFE
00000001
00000001
FFFFFFFF
FFFFFFFE
00000000
FFFFFFFE
00000000
00000000
FFFFFFFE
00000000
00000001
FFFFFFFE
00000002
FFFFFFFF
00000002
FFFFFFFF
00000001
FFFFFFFF
FFFFFFFF
00000002
00000001
00000001
FFFFFFFE
00000001
FFFFFFFF
00000000
FFFFFFFF
FFFFFFFE
00000001
FFFFFFFF
00000000
FFFFFFFF
FFFFFFFE
00000001
FFFFFFFF
00000000
00000001
00000000
00000002
00000001
FFFFFFFF
00000000
00000001
00000000
FFFFFFFE
00000000
00000000
FFFFFFFF
00000002
00000002
00000001
00000001
00000002
00000000
00000001
00000000
FFFFFFFF
00000001
00000002
00000001
FFFFFFFE
FFFFFFFF
00000001
00000001
FFFFFFFE
FFFFFFFF
FFFFFFFF
FFFFFFFF
00000000
00000000
00000001
00000000
00000001
FFFFFFFE
00000002
00000002
FFFFFFFE
FFFFFFFF
00000001
00000000
FFFFFFFF
FFFFFFFE
FFFFFFFF
00000001
00000002
FFFFFFFF
00000000
00000001
00000000
00000001
00000000
00000001
FFFFFFFF
FFFFFFFE
00000001
FFFFFFFF
FFFFFFFF
00000000
00000001
00000000
00000001
FFFFFFFF
00000002
00000000
FFFFFFFF
FFFFFFFE
00000000
FFFFFFFF
00000001
00000000
00000000
FFFFFFFE
00000000
00000000
00000001
00000000
FFFFFFFF
00000001
00000001
00000000
FFFFFFFF
FFFFFFFE
00000001
FFFFFFFE
FFFFFFFE
00000000
FFFFFFFF
FFFFFFFE
FFFFFFFF
00000000
FFFFFFFF
00000002
00000000
FFFFFFFF
00000002
00000001
00000001
FFFFFFFE
FFFFFFFE
00000000
00000000
00000000
FFFFFFFE
FFFFFFFE
FFFFFFFF
00000002
FFFFFFFF
00000002
00000000
00000000
00000002
00000000
00000002
00000000
FFFFFFFF
00000000
FFFFFFFF
00000001
00000000
FFFFFFFF
00000000
00000000
00000000
00000001
00000001
00000000
00000001
FFFFFFFF
FFFFFFFF
00000001
FFFFFFFF
FFFFFFFF
00000001
00000000
FFFFFFFF
00000001
FFFFFFFF
00000000
00000002
00000001
00000001
00000000
00000000
FFFFFFFE
00000001
00000000
00000000
FFFFFFFF
00000000
00000001
00000001
FFFFFFFF
00000001
00000001
FFFFFFFF
00000000
FFFFFFFE
00000000
00000000
00000001
00000000
00000000
00000000
00000001
FFFFFFFF
00000000
00000000
00000000
00000000
00000001
FFFFFFFF
00000001
FFFFFFFF
00000001
FFFFFFFE
00000000
00000000
00000000
FFFFFFFE
00000000
00000001
00000001
FFFFFFFE
00000001
FFFFFFFE
FFFFFFFE
00000001
00000001
00000000
00000001
FFFFFFFE
FFFFFFFE
00000002
00000002
FFFFFFFF
00000002
FFFFFFFE
00000001
00000000
00000000
00000001
00000000
00000001
FFFFFFFF
FFFFFFFF
00000000
FFFFFFFE
FFFFFFFF
00000001
00000000
FFFFFFFF
00000000
FFFFFFFF
FFFFFFFF
00000001
00000000
00000000
FFFFFFFE
00000000
00000001
FFFFFFFF
00000000
00000000
00000000
FFFFFFFF
FFFFFFFF
00000001
00000000
FFFFFFFF
00000001
00000001
FFFFFFFF
FFFFFFFF
00000001
FFFFFFFE
FFFFFFFE
00000000
FFFFFFFF
00000001
FFFFFFFE
00000000
FFFFFFFF
00000002
FFFFFFFE
00000000
00000000
00000001
00000000
FFFFFFFF
00000001
00000001
00000000
00000002
00000001
FFFFFFFE
00000001
00000000
FFFFFFFF
FFFFFFFE
00000000
FFFFFFFF
00000001
00000002
00000001
FFFFFFFF
FFFFFFFE
FFFFFFFF
00000000
00000000
00000000
00000000
00000001
00000001
FFFFFFFF
00000001
00000002
FFFFFFFF
00000000
00000001
FFFFFFFF
00000001
FFFFFFFE
00000001
00000000
FFFFFFFF
00000000
00000001
FFFFFFFF
FFFFFFFF
00000001
00000001
FFFFFFFF
FFFFFFFF
FFFFFFFF
FFFFFFFE
FFFFFFFE
00000000
FFFFFFFF
FFFFFFFE
FFFFFFFE
FFFFFFFE
00000001
FFFFFFFF
FFFFFFFF
00000000
FFFFFFFF
FFFFFFFF
00000001
00000002
FFFFFFFE
00000000
FFFFFFFF
00000001
FFFFFFFE
FFFFFFFE
00000001
FFFFFFFE
FFFFFFFF
FFFFFFFF
FFFFFFFF
00000001
FFFFFFFE
00000000
00000001
FFFFFFFE
FFFFFFFF
FFFFFFFF
FFFFFFFF
00000001
00000001
00000002
FFFFFFFE
FFFFFFFF
FFFFFFFF
00000001
00000000
FFFFFFFF
00000001
00000002
00000000
FFFFFFFE
FFFFFFFF
FFFFFFFF
FFFFFFFE
FFFFFFFE
00000001
FFFFFFFE
FFFFFFFF
FFFFFFFE
00000000
00000000
FFFFFFFE
FFFFFFFE
FFFFFFFF
FFFFFFFF
00000000
FFFFFFFE
FFFFFFFF
00000000
00000000
FFFFFFFF
FFFFFFFF
FFFFFFFF
00000001
00000002
00000002
00000001
00000000
FFFFFFFF
00000000
00000000
00000001
00000000
00000002
FFFFFFFF
00000001
FFFFFFFE
FFFFFFFF
FFFFFFFF
FFFFFFFF
00000000
FFFFFFFF
00000000
00000001
FFFFFFFF
00000000
00000000
FFFFFFFF
00000000
00000001
00000001
00000002
FFFFFFFF
FFFFFFFF
00000001
00000001
FFFFFFFF
00000001
00000000
00000001
FFFFFFFF
FFFFFFFE
FFFFFFFF
00000000
FFFFFFFF
00000000
00000000
FFFFFFFF
FFFFFFFF
00000000
FFFFFFFE
FFFFFFFE
FFFFFFFF
FFFFFFFE
00000000
FFFFFFFF
FFFFFFFE
00000000
00000002
00000000
00000001
00000000
FFFFFFFF
00000001
00000000
00000000
FFFFFFFE
FFFFFFFE
00000000
00000001
00000000
FFFFFFFF
FFFFFFFE
00000000
00000001
FFFFFFFE
00000001
FFFFFFFF
00000001
00000001
00000000
FFFFFFFF
00000001
00000000
00000001
00000000
00000000
00000000
00000001
00000000
FFFFFFFF
FFFFFFFF
FFFFFFFE
00000001
00000001
00000000
FFFFFFFE
00000001
00000001
FFFFFFFF
00000000
FFFFFFFF
00000000
00000000
00000001
00000000
FFFFFFFF
00000001
00000000
FFFFFFFF
00000001
00000000
FFFFFFFE
FFFFFFFF
00000000
FFFFFFFF
00000001
FFFFFFFF
FFFFFFFF
00000002
00000001
FFFFFFFE
FFFFFFFE
00000001
FFFFFFFE
FFFFFFFF
00000000
00000000
FFFFFFFF
00000000
00000001
FFFFFFFE
FFFFFFFF
00000000
FFFFFFFE
FFFFFFFE
FFFFFFFE
FFFFFFFF
00000000
00000000
00000001
00000000
00000001
00000000
00000001
FFFFFFFF
FFFFFFFF
FFFFFFFF
FFFFFFFF
FFFFFFFE
00000001
00000000
FFFFFFFF
00000001
00000000
FFFFFFFE
00000000
FFFFFFFE
FFFFFFFF
00000001
FFFFFFFF
FFFFFFFE
00000000
FFFFFFFF
00000000
FFFFFFFF
00000001
FFFFFFFF
FFFFFFFE
00000001
00000000
FFFFFFFF
00000000
00000002
FFFFFFFF
FFFFFFFF
00000001
00000001
00000001
00000001
FFFFFFFE
FFFFFFFE
00000001
00000001
FFFFFFFE
00000001
00000001
FFFFFFFE
FFFFFFFF
FFFFFFFF
FFFFFFFE
00000000
00000000
00000001
FFFFFFFE
00000000
00000001
00000002
FFFFFFFE
00000002
00000001
00000002
FFFFFFFF
FFFFFFFF
FFFFFFFF
FFFFFFFF
00000001
FFFFFFFE
FFFFFFFF
00000000
FFFFFFFE
00000000
00000000
FFFFFFFF
FFFFFFFF
FFFFFFFE
FFFFFFFE
00000000
00000000
00000001
00000000
FFFFFFFF
00000001
00000001
00000000
FFFFFFFE
00000001
00000000
FFFFFFFF
FFFFFFFE
00000001
FFFFFFFE
00000001
00000000
00000002
FFFFFFFE
00000000
FFFFFFFF
FFFFFFFF
FFFFFFFF
00000000
FFFFFFFE
00000000
00000000
00000000
FFFFFFFF
FFFFFFFF
00000001
00000002
FFFFFFFE
00000001
FFFFFFFF
FFFFFFFE
00000000
00000000
00000002
00000001
00000001
00000000
00000002
00000000
00000001
00000001
FFFFFFFE
00000000
FFFFFFFE
00000000
FFFFFFFF
00000001
00000000
FFFFFFFE
FFFFFFFF
00000002
00000001
FFFFFFFF
00000001
00000002
00000001
FFFFFFFF
FFFFFFFF
00000001
00000000
00000001
FFFFFFFF
00000000
00000002
00000002
FFFFFFFF
FFFFFFFF
00000000
00000000
FFFFFFFF
00000001
00000000
00000001
FFFFFFFF
FFFFFFFF
FFFFFFFF
FFFFFFFF
FFFFFFFE
00000001
00000000
00000000
FFFFFFFE
00000002
00000001
00000002
00000001
FFFFFFFF
00000000
FFFFFFFE
00000002
FFFFFFFF
00000000
FFFFFFFF
00000002
FFFFFFFF
FFFFFFFF
00000000
00000000
00000000
FFFFFFFF
FFFFFFFF
00000001
FFFFFFFE
FFFFFFFF
00000001
00000001
FFFFFFFE
00000001
00000000
00000000
FFFFFFFF
00000000
00000001
00000001
00000000
00000001
00000000
FFFFFFFF
FFFFFFFE
FFFFFFFE
00000002
00000000
00000000
00000001
00000002
00000000
00000001
FFFFFFFE
00000000
00000001
00000001
FFFFFFFF
FFFFFFFF
00000000
00000001
FFFFFFFF
00000002
FFFFFFFE
00000000
00000000
FFFFFFFF
FFFFFFFF
00000000
FFFFFFFF
00000000
00000000
00000002
00000001
FFFFFFFF
FFFFFFFE
00000001
00000001
FFFFFFFF
FFFFFFFF
00000000
00000000
00000001
00000001
FFFFFFFF
FFFFFFFE
00000000
00000000
00000002
00000000
00000001
00000002
FFFFFFFE
00000001
00000001
00000001
FFFFFFFF
FFFFFFFE
00000001
00000000
FFFFFFFF
00000001
FFFFFFFE
00000000
00000003
00000006
00000006
00000002
00000003
00000002
00000004
00000003
00000002
FFFFFFFE
FFFFFFFE
FFFFFFFA
FFFFFFFD
00000005
00000007
00000006
00000005
00000006
00000002
00000002
00000001
FFFFFFFF
FFFFFFFE
00000001
00000002
FFFFFFFF
FFFFFFFD
00000001
00000002
00000006
00000004
00000003
FFFFFFFF
00000001
00000008
00000004
00000002
00000003
00000004
00000002
00000001
00000000
00000003
00000006
00000004
00000006
00000002
FFFFFFFE
FFFFFFFC
00000001
00000001
FFFFFFFF
00000001
FFFFFFFE
FFFFFFFB
00000000
00000008
00000006
00000007
00000003
00000000
00000001
00000006
00000003
00000000
00000002
00000002
FFFFFFFF
00000002
00000003
00000006
00000003
00000006
00000003
00000006
00000001
FFFFFFFB
00000001
00000001
00000001
00000002
FFFFFFFD
00000002
00000009
00000006
00000004
00000005
00000005
00000002
00000002
00000001
00000001
00000000
00000000
FFFFFFFF
FFFFFFFE
FFFFFFFE
00000001
00000002
00000002
00000005
00000002
00000001
00000000
00000000
FFFFFFFF
00000002
FFFFFFFF
FFFFFFFE
00000000
00000000
00000007
00000002
00000005
00000003
00000003
00000002
00000000
00000001
00000001
FFFFFFFE
00000000
00000000
00000001
00000000
00000001
00000002
00000002
00000000
FFFFFFFC
00000001
00000001
00000002
00000002
00000007
FFFFFFFF
00000002
00000001
FFFFFFFB
00000006
00000002
00000001
00000000
00000001
00000001
FFFFFFFF
00000001
00000001
FFFFFFFF
00000000
00000000
00000000
FFFFFFFD
FFFFFFFC
00000000
00000001
FFFFFFFC
FFFFFFFC
00000002
00000005
00000007
00000001
00000006
FFFFFFFE
FFFFFFFD
FFFFFFFF
FFFFFFFF
00000005
00000008
00000000
00000002
00000003
00000001
00000000
00000000
FFFFFFFF
FFFFFFFF
FFFFFFFE
FFFFFFFE
FFFFFFFD
FFFFFFFE
FFFFFFFC
FFFFFFFF
FFFFFFFE
FFFFFFFE
00000000
00000000
00000002
00000003
00000006
00000004
FFFFFFFA
FFFFFFFB
00000001
00000003
00000004
00000005
00000000
00000003
00000002
FFFFFFFE
FFFFFFFC
FFFFFFFF
FFFFFFFC
FFFFFFFD
FFFFFFFC
FFFFFFF9
FFFFFFF9
FFFFFFFB
FFFFFFFE
FFFFFFFE
FFFFFFFF
00000001
FFFFFFFE
FFFFFFFD
FFFFFFFF
00000005
00000007
00000000
FFFFFFFC
FFFFFFFB
FFFFFFFF
FFFFFFFF
00000000
FFFFFFFE
FFFFFFFE
00000000
FFFFFFFF
00000000
FFFFFFFA
FFFFFFFD
FFFFFFFD
FFFFFFFE
FFFFFFFD
FFFFFFFB
FFFFFFFC
FFFFFFFD
FFFFFFFD
FFFFFFFF
00000004
00000004
00000000
FFFFFFFD
FFFFFFFC
00000000
00000003
FFFFFFFB
FFFFFFFF
FFFFFFFD
FFFFFFF7
FFFFFFFD
00000001
FFFFFFFC
FFFFFFFD
00000002
FFFFFFFE
FFFFFFFF
FFFFFFFD
FFFFFFFD
FFFFFFFF
FFFFFFFE
FFFFFFFD
FFFFFFFD
FFFFFFFA
FFFFFFFD
00000000
00000002
00000001
FFFFFFFD
00000000
00000002
FFFFFFFF
FFFFFFFF
FFFFFFFE
FFFFFFFE
FFFFFFFF
FFFFFFFC
FFFFFFFC
FFFFFFFE
FFFFFFFD
00000000
00000001
00000000
00000003
00000002
00000000
00000000
00000002
00000003
00000005
00000003
00000002
00000001
00000001
00000000
00000000
FFFFFFFF
FFFFFFFF
FFFFFFFE
FFFFFFFD
FFFFFFFD
FFFFFFFD
FFFFFFFA
FFFFFFFF
FFFFFFFF
FFFFFFFB
FFFFFFFA
FFFFFFFA
FFFFFFFF
00000000
00000002
00000000
00000001
00000001
00000004
00000003
00000007
00000006
00000007
00000005
00000002
00000002
FFFFFFFF
FFFFFFFE
FFFFFFFE
FFFFFFFF
00000002
00000001
FFFFFFFD
FFFFFFFA
FFFFFFF9
FFFFFFFD
00000001
FFFFFFFB
FFFFFFF9
FFFFFFFD
00000002
00000004
00000000
00000001
00000004
00000002
00000003
00000003
00000007
00000003
0000000A
00000008
00000004
00000002
00000004
FFFFFFFF
00000001
00000000
00000003
FFFFFFFF
FFFFFFFE
FFFFFFF9
FFFFFFFD
FFFFFFFF
FFFFFFFF
FFFFFFFB
FFFFFFFD
FFFFFFFF
00000004
00000003
FFFFFFFF
00000003
00000004
00000001
00000002
00000000
00000004
00000005
00000005
00000004
00000004
00000001
00000004
FFFFFFFF
00000000
00000002
FFFFFFFF
FFFFFFFD
FFFFFFFE
FFFFFFF8
FFFFFFFA
FFFFFFFE
00000003
00000006
FFFFFFFF
FFFFFFFF
00000002
00000000
00000003
00000004
00000002
FFFFFFFD
00000000
00000003
00000004
00000007
00000005
00000005
00000003
00000003
00000003
00000001
00000000
00000002
00000002
FFFFFFFA
00000000
FFFFFFFB
FFFFFFFB
FFFFFFFD
00000002
00000003
00000001
00000001
00000001
00000000
00000003
00000004
00000000
00000000
FFFFFFFF
00000003
00000001
00000002
00000002
00000000
00000004
00000003
00000002
00000002
00000004
00000002
00000001
FFFFFFFD
FFFFFFFF
FFFFFFF7
FFFFFFFA
FFFFFFFF
00000002
00000005
00000004
00000001
00000001
00000001
00000005
00000002
00000002
FFFFFFFE
00000001
FFFFFFFF
00000000
00000002
FFFFFFFF
00000003
00000003
00000004
00000006
00000003
00000002
00000002
00000002
FFFFFFFE
FFFFFFF9
FFFFFFFA
FFFFFFF8
FFFFFFFC
00000003
00000001
00000004
00000003
00000002
00000004
00000001
00000000
00000000
00000000
00000000
00000004
00000004
00000003
00000000
00000004
00000003
00000004
00000002
00000001
00000001
FFFFFFFC
FFFFFFFE
FFFFFFFC
FFFFFFFC
FFFFFFFE
FFFFFFF9
00000001
FFFFFFFC
FFFFFFF9
00000006
00000002
00000005
00000000
00000000
00000002
00000003
00000000
FFFFFFFF
00000002
00000001
00000004
00000004
00000003
00000004
00000003
00000004
00000003
00000000
FFFFFFFB
FFFFFFFE
FFFFFFFB
FFFFFFF9
FFFFFFFE
FFFFFFFB
00000001
FFFFFFFE
FFFFFFFC
00000001
00000001
FFFFFFFE
00000002
00000001
00000000
00000002
00000001
FFFFFFFF
FFFFFFFD
00000001
00000003
00000002
00000000
00000002
00000003
00000000
00000001
00000002
FFFFFFFE
FFFFFFF9
FFFFFFF5
FFFFFFF6
FFFFFFFD
FFFFFFFE
FFFFFFFF
00000001
FFFFFFFE
FFFFFFFC
FFFFFFFD
FFFFFFFA
FFFFFFFE
00000000
FFFFFFFE
FFFFFFFF
FFFFFFFF
00000002
FFFFFFFF
00000002
00000000
00000001
00000000
00000004
00000001
FFFFFFFF
00000003
FFFFFFFD
FFFFFFFC
FFFFFFF7
FFFFFFF3
FFFFFFF6
FFFFFFF9
00000000
FFFFFFFE
00000001
FFFFFFFD
00000000
FFFFFFFD
FFFFFFF6
FFFFFFFB
FFFFFFFC
FFFFFFFB
FFFFFFFC
FFFFFFFD
00000001
00000000
00000002
FFFFFFFE
00000001
00000002
00000000
00000002
00000003
00000002
00000002
FFFFFFFD
FFFFFFFA
FFFFFFF5
FFFFFFF9
FFFFFFFE
FFFFFFFD
FFFFFFFF
00000000
00000004
00000008
00000004
FFFFFFFF
FFFFFFFC
00000001
00000000
FFFFFFFF
FFFFFFFD
FFFFFFFD
FFFFFFFE
00000000
FFFFFFFD
FFFFFFFF
00000002
FFFFFFFD
00000005
00000005
00000006
00000003
FFFFFFFB
FFFFFFF9
FFFFFFF9
FFFFFFFC
FFFFFFFF
FFFFFFFF
FFFFFFFF
00000001
FFFFFFFF
0000000B
00000007
00000001
00000002
00000004
00000004
00000004
00000005
00000004
00000002
00000004
00000002
00000001
00000004
FFFFFFFC
00000001
00000002
00000002
FFFFFFFE
FFFFFFFC
FFFFFFFD
FFFFFFF9
FFFFFFFE
FFFFFFFF
00000000
00000001
FFFFFFFF
00000005
00000001
FFFFFFFD
00000000
00000003
00000002
FFFFFFFE
00000004
00000008
00000005
00000003
00000004
FFFFFFFF
FFFFFFFF
FFFFFFFD
FFFFFFFD
00000000
FFFFFFFB
FFFFFFF9
FFFFFFFA
FFFFFFFA
00000001
FFFFFFFD
00000000
00000001
00000000
FFFFFFFE
FFFFFFFE
00000002
FFFFFFFF
00000003
FFFFFFFC
FFFFFFFF
FFFFFFFE
FFFFFFFE
FFFFFFFD
FFFFFFFD
FFFFFFFD
FFFFFFFD
FFFFFFFE
FFFFFFF9
FFFFFFFB
FFFFFFF9
FFFFFFFC
FFFFFFFB
FFFFFFF4
FFFFFFF5
FFFFFFF9
FFFFFFF6
FFFFFFFB
FFFFFFFD
FFFFFFFF
FFFFFFFF
FFFFFFFF
FFFFFFFF
00000000
00000000
FFFFFFFF
FFFFFFFE
FFFFFFFB
FFFFFFF8
FFFFFFFB
FFFFFFF7
FFFFFFFB
FFFFFFF6
FFFFFFFD
FFFFFFFD
FFFFFFFB
FFFFFFF8
FFFFFFFE
FFFFFFFE
FFFFFFFB
FFFFFFFC
FFFFFFFE
FFFFFFFF
FFFFFFFB
FFFFFFFB
FFFFFFFE
00000000
00000000
00000002
FFFFFFFF
00000001
00000001
00000001
00000000
00000001
00000000
FFFFFFFE
FFFFFFFE
00000000
00000000
00000000
00000001
FFFFFFFE
00000002
00000001
00000001
00000000
FFFFFFFF
00000001
FFFFFFFF
00000001
00000002
FFFFFFFF
00000001
FFFFFFFF
FFFFFFFF
00000000
FFFFFFFF
00000001
00000000
00000001
FFFFFFFF
00000000
00000000
FFFFFFFA
FFFFFFFA
FFFFFFFD
FFFFFFFB
FFFFFFFD
FFFFFFFA
FFFFFFF6
FFFFFFF9
00000000
FFFFFFFA
FFFFFFFD
FFFFFFFA
FFFFFFFB
FFFFFFF9
FFFFFFF9
FFFFFFFC
FFFFFFFB
FFFFFFFF
00000001
FFFFFFFF
00000000
FFFFFFFE
00000000
FFFFFFFF
00000000
FFFFFFFE
FFFFFFFB
FFFFFFFE
FFFFFFFA
FFFFFFFD
FFFFFFFD
00000005
00000004
00000000
00000001
FFFFFFFD
00000000
00000002
00000000
00000001
FFFFFFFE
FFFFFFF9
FFFFFFFE
00000002
FFFFFFFD
FFFFFFFE
00000001
00000001
FFFFFFFF
FFFFFFFF
00000002
00000001
FFFFFFFF
FFFFFFFC
FFFFFFFD
FFFFFFFC
FFFFFFFA
FFFFFFFC
FFFFFFFB
00000004
00000001
00000004
FFFFFFFF
FFFFFFFF
FFFFFFFF
FFFFFFFF
FFFFFFFF
FFFFFFFB
FFFFFFF6
FFFFFFFA
FFFFFFF7
FFFFFFFF
00000001
00000001
00000002
00000004
00000004
FFFFFFFE
00000000
00000000
FFFFFFFD
FFFFFFFA
FFFFFFFF
00000002
00000006
00000004
00000003
00000005
00000005
00000002
00000003
00000005
00000004
FFFFFFFF
FFFFFFFD
00000000
FFFFFFFD
FFFFFFFD
00000000
00000000
00000001
00000005
00000003
FFFFFFFF
FFFFFFFE
FFFFFFFE
00000000
00000000
00000000
00000000
00000000
FFFFFFFE
00000002
00000003
00000001
00000003
00000004
FFFFFFFF
00000002
00000000
FFFFFFFE
FFFFFFFE
00000002
00000000
00000003
00000003
00000002
00000005
00000003
00000005
00000007
00000001
FFFFFFFD
00000001
FFFFFFFF
00000001
FFFFFFFE
FFFFFFFE
00000000
FFFFFFFF
00000004
00000002
00000001
00000003
FFFFFFFD
FFFFFFFC
FFFFFFFA
FFFFFFFA
FFFFFFFB
FFFFFFFC
FFFFFFFC
FFFFFFFF
00000000
00000001
FFFFFFFF
FFFFFFFF
FFFFFFFF
00000005
00000003
FFFFFFFE
FFFFFFFE
00000004
FFFFFFFF
FFFFFFFB
FFFFFFFD
FFFFFFFC
00000001
00000003
00000000
00000003
00000001
FFFFFFFE
FFFFFFFC
FFFFFFFE
FFFFFFFC
FFFFFFFE
FFFFFFFE
FFFFFFFB
FFFFFFFE
FFFFFFFE
FFFFFFFE
00000000
00000000
00000002
00000001
FFFFFFFB
FFFFFFFC
FFFFFFFF
00000005
00000002
FFFFFFFC
FFFFFFFA
00000000
FFFFFFFD
00000002
00000002
00000001
00000000
FFFFFFFD
FFFFFFFD
FFFFFFFC
FFFFFFFF
FFFFFFFE
FFFFFFFE
FFFFFFFC
00000000
00000002
00000003
FFFFFFFE
FFFFFFFF
FFFFFFFD
00000001
FFFFFFFB
FFFFFFFD
FFFFFFFC
00000002
00000005
FFFFFFFD
00000001
FFFFFFFA
00000000
00000000
FFFFFFFD
00000002
00000000
FFFFFFFD
FFFFFFFB
FFFFFFFC
FFFFFFFB
FFFFFFFF
FFFFFFFD
FFFFFFFB
FFFFFFFA
00000000
00000007
00000003
00000001
FFFFFFFE
00000001
00000001
FFFFFFFC
FFFFFFFD
FFFFFFFB
FFFFFFFC
00000002
FFFFFFFC
FFFFFFFF
FFFFFFFF
FFFFFFFF
00000000
FFFFFFFE
00000002
00000001
FFFFFFFE
FFFFFFFF
FFFFFFFE
FFFFFFFD
FFFFFFFE
FFFFFFFE
FFFFFFF7
FFFFFFF8
FFFFFFFE
00000005
00000004
FFFFFFFD
FFFFFFFF
FFFFFFFF
00000000
FFFFFFFE
FFFFFFFC
FFFFFFFD
FFFFFFFD
FFFFFFFE
FFFFFFFF
00000000
FFFFFFFD
FFFFFFFA
FFFFFFFF
00000002
00000003
00000003
00000002
00000000
FFFFFFFF
00000000
00000000
FFFFFFFD
FFFFFFF5
FFFFFFF4
FFFFFFF9
00000001
FFFFFFFE
FFFFFFFF
00000000
FFFFFFFE
FFFFFFFF
FFFFFFFB
FFFFFFFA
FFFFFFF9
FFFFFFFF
FFFFFFFB
FFFFFFFA
FFFFFFFD
FFFFFFFC
FFFFFFFF
FFFFFFFF
00000000
00000000
FFFFFFFE
00000003
FFFFFFFF
00000002
00000000
FFFFFFFF
FFFFFFFE
FFFFFFF4
FFFFFFF4
FFFFFFF7
FFFFFFFD
FFFFFFFF
FFFFFFFD
00000001
FFFFFFFD
00000000
FFFFFFFD
FFFFFFF7
FFFFFFFE
FFFFFFFF
FFFFFFFF
FFFFFFFA
FFFFFFFF
FFFFFFFF
00000000
00000000
FFFFFFFF
00000004
00000000
00000003
00000003
00000001
00000002
00000002
00000000
FFFFFFFC
FFFFFFF8
FFFFFFFD
00000001
00000001
FFFFFFFF
FFFFFFFF
00000003
00000000
FFFFFFFF
FFFFFFFD
FFFFFFFC
00000005
00000005
00000000
FFFFFFFE
00000000
FFFFFFF9
00000002
00000005
00000003
00000005
00000003
00000005
00000003
00000001
00000005
00000004
00000002
00000001
00000001
00000006
00000004
00000002
00000004
FFFFFFFE
FFFFFFFC
FFFFFFFE
FFFFFFFA
FFFFFFFD
00000008
0000000A
00000005
00000001
00000000
00000001
00000005
00000005
00000001
00000005
00000004
00000008
00000004
00000003
00000001
00000003
00000004
00000005
00000007
00000009
00000006
00000002
FFFFFFFF
FFFFFFFA
FFFFFFFB
FFFFFFFA
FFFFFFFA
FFFFFFFE
00000007
0000000C
00000006
00000001
FFFFFFFE
00000000
00000006
00000000
00000002
00000006
00000004
00000003
00000002
00000003
00000002
00000004
00000005
00000006
00000007
0000000A
00000007
00000003
00000001
FFFFFFFD
00000001
FFFFFFFE
FFFFFFFD
00000001
0000000F
0000000D
00000001
FFFFFFFF
FFFFFFFB
00000002
00000000
00000003
00000003
00000005
00000001
00000003
00000002
00000002
FFFFFFFF
00000003
00000006
00000004
00000006
00000007
00000003
00000004
00000000
00000001
00000000
00000002
FFFFFFFF
FFFFFFFF
0000000C
00000004
00000001
FFFFFFFE
FFFFFFFD
FFFFFFFD
00000004
00000003
00000002
00000006
00000005
00000003
00000000
FFFFFFFD
FFFFFFFF
00000003
00000004
00000006
00000004
00000003
00000001
FFFFFFFF
FFFFFFFF
FFFFFFFF
FFFFFFFE
00000000
00000005
00000006
00000008
00000002
00000006
00000000
FFFFFFFD
FFFFFFFC
00000002
00000000
00000003
00000002
00000004
FFFFFFFE
FFFFFFFD
FFFFFFFD
FFFFFFFF
00000001
00000004
00000003
00000001
00000006
00000002
00000006
00000001
00000002
00000000
00000002
00000007
00000002
00000004
00000009
00000005
FFFFFFFE
00000000
00000003
00000000
00000000
00000001
00000002
00000004
00000002
FFFFFFFF
FFFFFFFE
FFFFFFFF
00000001
FFFFFFFD
00000000
00000002
00000004
00000005
00000009
00000003
00000005
00000006
00000004
00000004
00000005
FFFFFFFF
00000005
00000005
00000001
00000001
00000002
00000000
00000001
00000003
00000001
00000002
00000002
00000002
FFFFFFFE
FFFFFFFF
FFFFFFFD
FFFFFFFE
00000000
00000002
00000003
00000006
00000006
00000003
00000005
00000005
00000007
0000000B
00000003
FFFFFFFD
FFFFFFFD
FFFFFFFE
00000002
00000001
00000002
00000000
00000001
00000004
00000000
00000001
00000001
FFFFFFFF
00000000
FFFFFFFD
FFFFFFFD
FFFFFFFE
FFFFFFF9
FFFFFFFD
FFFFFFFC
00000002
00000003
00000007
00000006
00000008
00000005
00000006
00000007
00000002
FFFFFFFE
FFFFFFFF
00000000
00000001
00000000
FFFFFFFB
00000000
FFFFFFFC
FFFFFFFD
FFFFFFFD
00000000
FFFFFFFD
FFFFFFFA
FFFFFFFF
FFFFFFFF
FFFFFFFB
FFFFFFFB
FFFFFFFC
FFFFFFFC
FFFFFFFF
00000005
00000008
0000000C
0000000D
00000007
00000003
00000000
FFFFFFFF
FFFFFFFF
00000002
00000001
FFFFFFFF
FFFFFFFF
FFFFFFF7
FFFFFFF7
FFFFFFF7
FFFFFFFA
FFFFFFFB
FFFFFFF9
FFFFFFFA
FFFFFFF5
FFFFFFFB
FFFFFFFB
FFFFFFFB
FFFFFFFE
FFFFFFFA
FFFFFFFD
FFFFFFFD
00000002
00000004
00000005
00000004
00000005
00000003
00000003
00000006
00000003
FFFFFFFE
FFFFFFFF
00000000
00000002
FFFFFFF9
FFFFFFFD
FFFFFFFA
FFFFFFFB
FFFFFFF6
FFFFFFF5
FFFFFFEF
FFFFFFF1
FFFFFFF9
FFFFFFF8
FFFFFFF8
FFFFFFFD
FFFFFFFF
FFFFFFFA
FFFFFFF7
FFFFFFF7
FFFFFFF8
FFFFFFF9
FFFFFFFA
FFFFFFFB
00000002
FFFFFFFD
00000001
00000000
00000000
00000001
00000000
00000000
FFFFFFFD
00000002
FFFFFFFF
FFFFFFFF
FFFFFFFD
FFFFFFFD
FFFFFFF8
FFFFFFF7
FFFFFFFB
00000003
FFFFFFFE
FFFFFFF8
FFFFFFFE
FFFFFFF7
FFFFFFF3
FFFFFFF0
FFFFFFF2
FFFFFFF6
FFFFFFFB
FFFFFFF6
FFFFFFFA
FFFFFFFE
FFFFFFFC
00000000
00000000
00000000
FFFFFFFF
FFFFFFFE
00000001
00000000
FFFFFFFE
FFFFFFFD
FFFFFFFA
FFFFFFFC
FFFFFFFE
FFFFFFFD
FFFFFFFC
00000001
FFFFFFFA
FFFFFFFA
FFFFFFFE
FFFFFFFF
FFFFFFFB
FFFFFFFC
FFFFFFFF
00000000
FFFFFFFC
FFFFFFFC
FFFFFFF9
00000001
00000000
00000001
FFFFFFFF
FFFFFFFF
FFFFFFFF
00000000
00000001
FFFFFFFF
FFFFFFFF
FFFFFFFE
00000002
00000001
00000001
FFFFFFFE
00000001
00000002
FFFFFFFF
FFFFFFFF
FFFFFFFF
FFFFFFFF
00000002
00000001
FFFFFFFF
FFFFFFFF
00000000
FFFFFFFF
FFFFFFFF
00000001
00000001
00000000
00000000
00000002
FFFFFFFE
00000000
00000000
00000003
00000000
00000005
00000005
00000004
00000006
00000004
00000007
00000005
00000002
FFFFFFFB
FFFFFFFE
00000007
00000009
00000008
0000000A
00000007
00000004
00000004
00000003
00000000
00000000
FFFFFFFF
FFFFFFFF
FFFFFFFE
FFFFFFFF
00000001
00000006
00000008
00000002
00000004
00000006
00000007
00000005
00000005
00000009
00000002
FFFFFFFE
00000002
FFFFFFFF
00000000
00000003
FFFFFFFF
00000002
00000001
00000006
00000007
00000007
00000002
FFFFFFFF
FFFFFFFE
FFFFFFFF
FFFFFFFF
FFFFFFFF
FFFFFFFB
00000004
00000006
FFFFFFFE
00000000
00000001
00000005
0000000A
00000004
00000005
00000000
00000004
00000003
00000003
00000002
00000002
00000002
00000001
00000003
00000007
00000002
00000003
00000006
00000000
00000003
00000001
00000002
FFFFFFFE
FFFFFFFB
FFFFFFF8
00000003
FFFFFFFE
FFFFFFFD
00000001
00000002
00000008
00000006
00000001
00000003
00000001
00000001
FFFFFFFF
00000001
00000002
00000000
00000002
00000001
FFFFFFFF
FFFFFFFF
00000001
FFFFFFFE
FFFFFFFF
FFFFFFFF
00000002
00000000
00000000
FFFFFFFE
00000000
00000002
FFFFFFFB
FFFFFFFF
00000003
00000003
00000005
00000002
FFFFFFFF
00000001
FFFFFFFC
FFFFFFFF
FFFFFFFE
FFFFFFFD
FFFFFFFD
FFFFFFF8
FFFFFFFA
FFFFFFFC
FFFFFFFB
FFFFFFFB
00000004
00000005
00000004
00000004
00000003
FFFFFFFE
00000002
00000003
00000001
00000003
00000002
00000002
00000002
00000002
FFFFFFFE
FFFFFFFD
FFFFFFFC
FFFFFFF8
FFFFFFF8
FFFFFFF7
FFFFFFFA
FFFFFFFB
FFFFFFF8
FFFFFFF4
FFFFFFF4
FFFFFFF4
FFFFFFF6
FFFFFFFF
00000004
00000004
00000005
00000000
00000002
00000001
FFFFFFFC
00000002
FFFFFFFD
FFFFFFFE
00000002
FFFFFFFF
00000004
00000004
00000001
00000001
FFFFFFFF
FFFFFFF8
FFFFFFF9
FFFFFFF8
FFFFFFF9
FFFFFFFA
FFFFFFFB
FFFFFFF6
FFFFFFF5
FFFFFFF6
FFFFFFFB
FFFFFFFD
FFFFFFFD
00000004
00000005
00000000
00000001
00000003
00000001
00000001
FFFFFFFC
FFFFFFFE
00000002
FFFFFFFE
FFFFFFFE
00000001
00000002
00000000
FFFFFFFD
FFFFFFFE
FFFFFFFA
FFFFFFF9
FFFFFFFC
FFFFFFFA
FFFFFFFC
FFFFFFF8
FFFFFFF6
FFFFFFFC
FFFFFFFE
FFFFFFFC
FFFFFFFD
FFFFFFFF
00000001
FFFFFFFB
FFFFFFFE
00000002
FFFFFFFD
00000003
00000000
FFFFFFFD
FFFFFFFF
FFFFFFFB
FFFFFFFD
00000002
00000001
FFFFFFFF
FFFFFFFF
FFFFFFFD
FFFFFFF9
FFFFFFFB
FFFFFFFC
00000000
00000002
FFFFFFFE
FFFFFFFD
FFFFFFFF
00000002
FFFFFFFF
FFFFFFFF
00000001
FFFFFFFE
FFFFFFF7
FFFFFFFB
00000004
FFFFFFFB
FFFFFFFE
00000000
FFFFFFFD
FFFFFFFA
FFFFFFFD
00000000
00000001
00000004
00000000
FFFFFFFF
FFFFFFFD
FFFFFFFA
FFFFFFFB
00000003
00000006
00000004
FFFFFFFF
00000000
FFFFFFFF
00000001
00000001
FFFFFFFD
00000001
FFFFFFF9
FFFFFFFB
FFFFFFFA
00000001
00000004
FFFFFFFA
FFFFFFFB
FFFFFFF9
FFFFFFFB
FFFFFFFC
FFFFFFFC
00000000
00000003
00000001
00000002
00000000
FFFFFFFC
FFFFFFFE
00000003
00000005
FFFFFFFE
FFFFFFFD
00000002
FFFFFFFF
00000003
00000000
00000000
FFFFFFFE
FFFFFFFA
FFFFFFFA
FFFFFFFC
00000000
00000002
FFFFFFFB
FFFFFFFA
FFFFFFF5
FFFFFFF8
FFFFFFF9
FFFFFFFB
00000000
00000002
00000005
00000008
00000003
FFFFFFFD
FFFFFFFA
00000001
00000000
00000000
00000000
00000002
00000001
00000003
00000006
00000000
00000006
00000000
FFFFFFFA
FFFFFFFB
FFFFFFFF
00000003
FFFFFFFC
FFFFFFFE
FFFFFFF6
FFFFFFFB
FFFFFFFF
00000000
00000001
00000003
00000007
00000004
00000004
FFFFFFFE
FFFFFFFE
FFFFFFFF
FFFFFFFF
FFFFFFFE
FFFFFFFF
00000005
FFFFFFFF
00000004
00000006
00000008
00000007
00000003
00000003
00000004
00000002
FFFFFFFE
FFFFFFFC
00000003
FFFFFFF8
00000003
00000002
00000004
00000004
00000004
00000006
00000007
00000007
00000003
FFFFFFFF
00000001
00000002
00000002
00000004
00000004
00000002
00000003
00000007
00000005
00000007
00000004
00000001
00000005
00000003
00000000
00000002
00000004
FFFFFFFE
FFFFFFFF
00000003
00000006
00000005
00000006
00000004
00000006
00000004
00000003
00000002
00000003
00000001
00000000
00000003
00000003
00000004
00000006
00000004
00000006
00000007
0000000A
00000003
00000002
00000001
00000001
00000001
00000002
FFFFFFFC
00000004
00000003
00000003
00000004
00000004
00000002
00000007
00000002
00000004
00000003
00000004
00000001
00000002
00000004
00000005
00000004
00000006
00000004
00000004
00000003
0000000D
00000003
00000004
FFFFFFFF
FFFFFFFD
00000002
FFFFFFFC
FFFFFFFE
FFFFFFFE
00000002
00000000
00000003
00000001
00000003
00000005
00000001
00000003
00000004
00000004
00000003
00000002
00000004
00000001
00000004
00000007
00000007
00000003
FFFFFFFF
00000008
FFFFFFFF
00000005
FFFFFFFB
FFFFFFFC
FFFFFFFF
FFFFFFFB
00000002
FFFFFFFC
FFFFFFFC
00000000
00000004
FFFFFFFF
00000000
00000000
00000004
00000006
00000003
00000003
00000003
00000002
00000001
FFFFFFFE
00000000
00000003
00000002
00000005
00000004
00000004
FFFFFFFD
FFFFFFFD
FFFFFFFF
00000003
00000000
FFFFFFFE
FFFFFFFD
FFFFFFF8
FFFFFFFA
FFFFFFFF
00000001
00000002
00000002
00000003
00000003
00000007
00000006
00000001
00000000
00000002
00000000
FFFFFFFD
00000000
00000000
00000002
00000000
FFFFFFFF
FFFFFFFF
00000001
FFFFFFFD
FFFFFFFF
00000001
00000004
FFFFFFFE
FFFFFFFE
FFFFFFFB
FFFFFFF5
FFFFFFFB
FFFFFFFE
00000002
00000006
00000005
00000006
00000003
00000003
FFFFFFFF
FFFFFFFE
00000000
00000001
FFFFFFFE
00000000
FFFFFFFE
00000001
FFFFFFFD
FFFFFFFD
FFFFFFFE
00000002
FFFFFFFE
FFFFFFFF
FFFFFFFF
00000000
00000000
FFFFFFFF
FFFFFFFC
FFFFFFFA
FFFFFFFC
FFFFFFFF
00000004
00000004
00000008
00000004
00000003
00000003
00000000
00000001
00000002
FFFFFFFF
FFFFFFFD
00000001
FFFFFFFF
00000000
FFFFFFFC
FFFFFFFC
FFFFFFFF
00000008
00000003
FFFFFFFE
FFFFFFFF
00000000
00000001
FFFFFFFD
FFFFFFFB
FFFFFFFB
FFFFFFFA
FFFFFFFC
00000000
00000004
00000002
00000001
00000001
00000000
00000002
00000002
FFFFFFFF
FFFFFFFB
FFFFFFFE
FFFFFFFA
FFFFFFFC
FFFFFFFE
FFFFFFFA
FFFFFFFD
FFFFFFFE
00000007
00000003
00000001
00000000
00000001
FFFFFFFD
FFFFFFFF
FFFFFFF8
FFFFFFF7
FFFFFFF8
FFFFFFF9
FFFFFFFA
FFFFFFFB
FFFFFFFB
FFFFFFFE
FFFFFFFB
00000001
FFFFFFFF
FFFFFFFE
FFFFFFFB
FFFFFFF8
FFFFFFF6
FFFFFFF7
FFFFFFF9
FFFFFFFB
FFFFFFFC
FFFFFFFB
00000001
FFFFFFFE
00000002
FFFFFFFF
00000000
00000001
FFFFFFFE
FFFFFFFC
FFFFFFFC
FFFFFFF8
FFFFFFF4
FFFFFFF2
FFFFFFF6
FFFFFFF7
FFFFFFFA
FFFFFFF7
FFFFFFFB
FFFFFFFC
FFFFFFFB
FFFFFFFD
FFFFFFFA
FFFFFFF8
FFFFFFF4
FFFFFFF6
FFFFFFF9
FFFFFFFB
FFFFFFFB
FFFFFFFF
00000001
00000002
00000000
00000001
00000001
FFFFFFFF
00000001
FFFFFFFB
FFFFFFF6
FFFFFFF8
FFFFFFF7
FFFFFFF1
FFFFFFF6
FFFFFFFB
FFFFFFFD
FFFFFFF9
FFFFFFF6
FFFFFFF8
FFFFFFFC
FFFFFFFB
FFFFFFFA
FFFFFFF7
FFFFFFF5
FFFFFFF6
FFFFFFFE
00000002
FFFFFFFF
00000001
00000000
00000000
00000001
00000001
00000001
FFFFFFFF
00000000
FFFFFFFF
FFFFFFF9
FFFFFFF7
FFFFFFF3
FFFFFFF3
FFFFFFF5
FFFFFFF2
FFFFFFF3
FFFFFFEF
FFFFFFF2
FFFFFFED
FFFFFFF3
FFFFFFF2
FFFFFFFA
FFFFFFF8
FFFFFFF7
FFFFFFFA
FFFFFFFA
FFFFFFFE
FFFFFFFA
FFFFFFFB
FFFFFFFF
00000001
00000002
00000000
FFFFFFFE
FFFFFFFF
00000001
00000001
00000000
FFFFFFFD
FFFFFFFE
FFFFFFFD
FFFFFFFB
FFFFFFF8
FFFFFFFB
FFFFFFF9
FFFFFFF9
FFFFFFF3
FFFFFFF9
FFFFFFFB
FFFFFFF8
FFFFFFFC
FFFFFFFB
FFFFFFFD
FFFFFFFC
FFFFFFFD
FFFFFFFF
00000000
00000001
00000001
00000001
00000000
00000000
00000001
00000002
00000000
00000000
00000000
00000002
00000001
FFFFFFFF
FFFFFFFE
FFFFFFFF
00000001
00000000
00000004
00000001
00000000
FFFFFFFE
FFFFFFFF
FFFFFFFF
00000002
00000000
FFFFFFFF
00000000
FFFFFFFF
00000001
00000000
00000000
00000000
FFFFFFFF
FFFFFFFF
FFFFFFFE
FFFFFFFF
00000002
00000002
FFFFFFFF
FFFFFFFF
FFFFFFFF
FFFFFFFF
FFFFFFFE
FFFFFFFE
FFFFFFFF
FFFFFFFA
FFFFFFFC
00000006
00000002
FFFFFFFD
FFFFFFFB
FFFFFFFC
00000000
00000001
00000000
FFFFFFFE
00000000
FFFFFFFE
00000000
FFFFFFFF
00000001
FFFFFFFF
00000000
FFFFFFFB
FFFFFFFE
00000000
FFFFFFFF
00000002
00000003
00000007
00000002
00000004
FFFFFFFC
FFFFFFFD
FFFFFFFE
FFFFFFFF
00000001
00000000
FFFFFFFE
00000001
00000000
FFFFFFFE
FFFFFFFE
00000000
00000004
FFFFFFFF
00000001
00000002
00000002
00000001
FFFFFFFE
FFFFFFFF
00000004
00000002
00000007
0000000A
00000006
00000008
0000000A
00000008
00000006
00000004
00000004
00000003
00000005
00000000
FFFFFFFD
FFFFFFFF
FFFFFFFE
FFFFFFFD
00000004
00000006
00000002
FFFFFFFF
00000000
00000000
FFFFFFFF
00000003
00000004
FFFFFFFC
00000001
00000005
00000006
00000006
00000007
00000007
0000000B
00000009
00000006
00000003
00000004
00000004
00000004
00000002
FFFFFFFE
FFFFFFFA
FFFFFFFD
FFFFFFFC
FFFFFFFB
FFFFFFFD
00000001
FFFFFFFF
FFFFFFFB
FFFFFFFF
00000000
00000002
00000002
FFFFFFFF
FFFFFFFC
00000000
00000003
00000001
00000000
00000005
00000007
00000005
00000007
00000006
00000008
0000000B
00000008
00000006
00000004
00000005
00000001
00000000
FFFFFFF9
FFFFFFF9
FFFFFFFE
FFFFFFFE
FFFFFFFD
FFFFFFFE
00000003
FFFFFFFF
00000007
00000000
FFFFFFFE
00000001
FFFFFFFF
00000002
00000006
00000008
00000006
00000007
00000007
00000009
0000000D
0000000B
0000000A
00000007
00000006
00000001
00000002
00000001
FFFFFFFC
FFFFFFFA
00000000
00000002
00000001
FFFFFFFF
00000004
00000001
00000002
00000001
FFFFFFFC
FFFFFFFF
FFFFFFFD
00000004
00000002
00000002
00000001
00000004
00000007
00000005
00000009
00000009
00000003
00000003
00000000
FFFFFFFE
00000001
FFFFFFFF
FFFFFFFC
FFFFFFFB
00000002
00000001
FFFFFFFE
FFFFFFFF
00000001
FFFFFFFE
00000000
00000000
FFFFFFFE
FFFFFFFE
FFFFFFFF
00000001
FFFFFFFF
00000001
00000001
00000001
00000003
00000004
00000002
00000002
00000001
00000001
00000004
00000003
00000000
00000001
00000003
FFFFFFFF
00000004
00000004
00000005
00000000
FFFFFFFD
00000000
00000000
00000001
FFFFFFFE
00000000
FFFFFFFD
FFFFFFFF
FFFFFFFD
FFFFFFFC
FFFFFFFC
FFFFFFFC
FFFFFFF7
FFFFFFF7
FFFFFFF7
FFFFFFFD
00000001
00000002
00000003
00000002
00000001
00000005
00000003
FFFFFFFC
00000007
0000000C
00000003
00000000
FFFFFFFA
FFFFFFFE
00000000
00000001
FFFFFFFE
00000000
FFFFFFFF
FFFFFFFD
FFFFFFFA
FFFFFFFC
FFFFFFF8
FFFFFFF5
FFFFFFF1
FFFFFFF2
FFFFFFF4
FFFFFFFC
FFFFFFFE
FFFFFFFF
00000001
00000001
00000000
00000002
00000001
FFFFFFFD
00000001
00000007
00000002
FFFFFFFF
FFFFFFFF
FFFFFFFA
00000001
00000002
FFFFFFFE
FFFFFFFD
FFFFFFFC
FFFFFFFB
FFFFFFF9
FFFFFFFA
FFFFFFFB
FFFFFFF8
FFFFFFF8
FFFFFFFA
FFFFFFF9
FFFFFFF9
FFFFFFFB
FFFFFFFC
00000001
FFFFFFFF
00000000
00000000
FFFFFFFD
FFFFFFFD
00000004
00000004
FFFFFFFF
FFFFFFFD
FFFFFFFE
FFFFFFF9
FFFFFFFD
FFFFFFFE
FFFFFFFD
FFFFFFF9
FFFFFFFA
FFFFFFFA
FFFFFFFD
00000000
FFFFFFFC
FFFFFFFD
FFFFFFFC
00000002
FFFFFFFF
FFFFFFFC
FFFFFFFA
FFFFFFFE
00000003
00000005
00000003
FFFFFFFD
FFFFFFF8
00000002
00000001
00000002
FFFFFFFC
FFFFFFFD
FFFFFFFD
FFFFFFFC
FFFFFFFF
FFFFFFF9
FFFFFFFA
FFFFFFF9
FFFFFFFB
00000000
00000001
FFFFFFFF
00000002
00000001
00000005
00000004
FFFFFFFF
FFFFFFFD
FFFFFFFC
FFFFFFFF
00000000
00000003
00000000
FFFFFFFD
FFFFFFF8
FFFFFFFD
00000001
00000004
00000002
FFFFFFFE
FFFFFFFC
FFFFFFFE
FFFFFFFF
FFFFFFFE
FFFFFFFB
00000001
FFFFFFFF
FFFFFFFD
FFFFFFFD
FFFFFFFF
00000001
FFFFFFFF
00000006
00000006
00000002
00000000
FFFFFFFB
FFFFFFFC
FFFFFFFE
FFFFFFFB
FFFFFFFD
FFFFFFFC
FFFFFFF8
FFFFFFFD
00000002
00000002
00000002
FFFFFFFF
FFFFFFFE
FFFFFFFC
00000001
00000003
00000000
00000004
FFFFFFFE
FFFFFFFD
FFFFFFFB
FFFFFFFC
FFFFFFFF
FFFFFFFD
00000001
00000001
00000003
00000000
00000000
FFFFFFFD
FFFFFFFA
FFFFFFFA
FFFFFFF9
FFFFFFFD
FFFFFFFB
00000001
00000002
00000005
00000004
00000000
FFFFFFFF
FFFFFFFF
00000005
00000006
00000004
00000003
00000000
FFFFFFFD
00000000
00000001
FFFFFFFD
FFFFFFFF
FFFFFFFF
FFFFFFFF
00000000
00000004
00000002
FFFFFFFE
FFFFFFFE
FFFFFFFC
FFFFFFFD
FFFFFFFC
FFFFFFFD
00000002
00000003
00000005
00000004
FFFFFFFF
FFFFFFFF
FFFFFFFE
00000002
00000005
00000003
00000002
FFFFFFFE
00000001
00000002
FFFFFFFF
FFFFFFFE
FFFFFFFF
00000000
FFFFFFFE
00000002
00000005
00000003
FFFFFFFF
FFFFFFFD
FFFFFFFE
FFFFFFFC
FFFFFFF9
FFFFFFFD
00000000
00000001
00000000
00000008
00000004
FFFFFFFF
00000000
00000002
00000002
00000004
00000003
00000000
00000000
00000000
FFFFFFFE
FFFFFFFE
FFFFFFFF
FFFFFFFC
FFFFFFFA
00000001
00000003
00000000
FFFFFFFF
00000001
FFFFFFFF
FFFFFFFE
FFFFFFFF
00000001
00000000
00000001
00000001
00000001
FFFFFFFE
00000000
FFFFFFFF
FFFFFFFB
FFFFFFFF
00000002
00000001
00000005
00000001
00000000
FFFFFFFF
FFFFFFFD
FFFFFFFF
00000001
FFFFFFFD
00000003
00000001
00000003
00000002
00000000
FFFFFFFE
FFFFFFFD
00000001
00000000
00000001
00000000
00000004
FFFFFFFD
00000000
00000002
00000004
00000004
00000001
00000001
00000004
00000005
00000001
00000001
FFFFFFFF
FFFFFFFE
FFFFFFFF
00000001
FFFFFFFF
00000002
00000000
00000003
00000001
FFFFFFFE
00000002
00000003
00000001
00000004
00000001
00000002
00000001
FFFFFFFC
FFFFFFFE
00000003
00000008
00000003
00000000
FFFFFFFE
00000002
00000005
00000000
00000002
00000000
00000001
00000000
00000004
00000001
00000001
00000003
00000001
00000001
00000002
00000002
00000004
00000005
0000000C
00000002
FFFFFFFF
00000002
FFFFFFFF
FFFFFFFE
00000001
00000009
00000002
00000005
00000003
00000002
00000006
00000003
00000004
00000003
00000004
00000002
00000002
00000000
00000000
00000001
00000002
FFFFFFFF
00000002
00000004
00000001
00000005
00000009
00000008
00000004
FFFFFFFD
00000000
FFFFFFFF
00000000
00000005
00000005
00000007
00000003
00000000
00000003
00000008
00000006
00000003
00000005
00000004
00000003
00000002
00000004
00000005
00000004
00000003
00000001
00000004
00000003
00000008
0000000B
00000006
00000003
FFFFFFFA
00000001
00000000
FFFFFFFF
00000000
00000004
00000003
FFFFFFFE
FFFFFFFF
FFFFFFFF
FFFFFFFF
00000002
FFFFFFFF
00000002
00000004
00000006
00000007
0000000A
00000008
00000007
00000008
00000002
00000004
00000006
00000003
00000000
00000005
00000001
00000000
00000001
00000000
FFFFFFFE
FFFFFFFE
FFFFFFFC
FFFFFFFE
FFFFFFFD
FFFFFFFF
FFFFFFFE
FFFFFFFD
00000002
00000002
00000003
00000001
00000004
00000002
00000008
00000005
00000001
00000003
00000005
00000003
FFFFFFFD
FFFFFFFA
FFFFFFFE
00000000
00000002
FFFFFFFF
FFFFFFFF
FFFFFFFF
00000000
00000000
FFFFFFFE
FFFFFFFA
FFFFFFF8
FFFFFFF5
FFFFFFFB
00000000
FFFFFFFE
00000001
FFFFFFFF
FFFFFFFE
FFFFFFFD
FFFFFFFD
00000000
00000004
FFFFFFFE
00000002
00000001
00000000
FFFFFFFD
FFFFFFFF
00000003
FFFFFFFE
FFFFFFFE
00000001
FFFFFFFF
00000001
00000001
00000001
00000001
FFFFFFFF
00000001
FFFFFFFE
00000001
FFFFFFFE
FFFFFFFF
00000000
FFFFFFFF
FFFFFFFD
FFFFFFFC
FFFFFFFD
FFFFFFFE
FFFFFFFD
FFFFFFFF
FFFFFFFD
FFFFFFFD
FFFFFFFF
FFFFFFFD
FFFFFFFE
00000000
00000001
FFFFFFFF
FFFFFFFF
00000000
00000000
00000002
FFFFFFFE
00000002
00000001
00000001
00000000
00000002
FFFFFFFF
00000001
00000000
00000001
00000000
00000002
FFFFFFFE
FFFFFFFF
00000000
FFFFFFFE
00000001
FFFFFFFE
00000001
FFFFFFFF
00000000
FFFFFFFF
00000000
00000001
FFFFFFFF
00000001
00000001
FFFFFFFF
00000000
FFFFFFFE
FFFFFFFE
00000000
FFFFFFFB
FFFFFFFB
FFFFFFFE
FFFFFFFF
00000000
FFFFFFFE
FFFFFFFB
FFFFFFFF
00000002
FFFFFFF8
FFFFFFFA
FFFFFFFC
FFFFFFFF
FFFFFFFC
FFFFFFFC
FFFFFFFD
FFFFFFFB
FFFFFFFD
00000001
00000000
00000001
00000002
FFFFFFFE
FFFFFFFF
00000000
FFFFFFFC
FFFFFFFC
FFFFFFFF
FFFFFFFC
FFFFFFFE
FFFFFFFC
FFFFFFFA
FFFFFFFB
FFFFFFFE
FFFFFFFF
FFFFFFFF
00000003
00000000
00000000
00000002
FFFFFFFE
FFFFFFFE
00000001
00000004
00000003
FFFFFFFE
00000002
FFFFFFFF
00000002
00000001
00000001
00000001
FFFFFFFF
FFFFFFFE
FFFFFFFC
00000001
FFFFFFFB
FFFFFFF6
FFFFFFF4
FFFFFFF9
FFFFFFFA
FFFFFFFB
FFFFFFF4
FFFFFFF9
FFFFFFFE
00000000
00000001
FFFFFFFE
FFFFFFFE
FFFFFFFB
FFFFFFFA
FFFFFFFD
00000001
00000000
FFFFFFFD
FFFFFFFD
00000000
FFFFFFFF
00000000
00000002
00000000
FFFFFFFB
00000002
00000001
FFFFFFFF
FFFFFFFD
FFFFFFFF
FFFFFFFC
00000001
00000001
00000000
00000001
00000002
FFFFFFFD
FFFFFFFD
FFFFFFFE
FFFFFFFC
FFFFFFFD
FFFFFFFF
FFFFFFFD
FFFFFFFE
00000000
00000000
FFFFFFFD
FFFFFFFE
00000003
00000001
00000002
FFFFFFFE
FFFFFFFF
00000001
00000000
00000001
00000000
00000002
00000003
00000003
00000003
00000005
00000001
00000000
00000000
FFFFFFFC
FFFFFFFE
FFFFFFFF
FFFFFFFE
00000000
00000000
FFFFFFFB
FFFFFFFF
00000001
00000002
00000002
00000003
00000000
FFFFFFFB
FFFFFFFD
FFFFFFFD
FFFFFFFA
FFFFFFFB
FFFFFFFC
FFFFFFFF
FFFFFFFE
FFFFFFFF
FFFFFFFD
00000002
00000003
00000003
00000004
00000007
00000003
00000001
00000000
FFFFFFFD
FFFFFFFF
FFFFFFFF
FFFFFFFF
FFFFFFFF
FFFFFFFE
00000000
00000001
00000002
00000001
FFFFFFF8
FFFFFFFF
FFFFFFF8
FFFFFFF7
FFFFFFFD
FFFFFFFE
FFFFFFF9
FFFFFFFB
FFFFFFFC
FFFFFFFD
00000001
00000003
00000004
00000004
00000008
00000004
00000001
FFFFFFFF
FFFFFFFD
00000000
FFFFFFFF
FFFFFFFF
00000001
00000000
00000000
00000001
00000000
FFFFFFFC
FFFFFFF9
FFFFFFFC
FFFFFFFD
FFFFFFF9
FFFFFFFC
FFFFFFFF
FFFFFFF7
00000000
FFFFFFFD
00000001
00000001
00000002
00000003
00000004
00000001
FFFFFFFF
FFFFFFFC
FFFFFFFE
FFFFFFFF
FFFFFFFC
00000001
FFFFFFFC
FFFFFFF8
00000000
00000001
00000005
FFFFFFFD
FFFFFFFD
FFFFFFFA
FFFFFFFE
FFFFFFFF
FFFFFFF5
FFFFFFFD
FFFFFFFE
FFFFFFFD
FFFFFFFE
00000001
00000002
00000002
FFFFFFFF
00000003
00000001
00000001
FFFFFFFF
FFFFFFFF
FFFFFFFE
FFFFFFFF
FFFFFFFD
FFFFFFFF
FFFFFFFD
FFFFFFF9
FFFFFFFC
FFFFFFF9
FFFFFFFE
00000000
FFFFFFFD
FFFFFFFB
FFFFFFFA
FFFFFFFC
FFFFFFF7
FFFFFFFC
FFFFFFFF
00000000
FFFFFFFF
00000000
00000001
FFFFFFFF
FFFFFFFE
FFFFFFFC
00000000
00000001
FFFFFFFD
FFFFFFFE
FFFFFFFE
FFFFFFFF
FFFFFFFD
FFFFFFFE
00000000
FFFFFFFE
FFFFFFFA
FFFFFFFB
FFFFFFFB
00000000
FFFFFFFC
FFFFFFFB
FFFFFFF9
FFFFFFF7
FFFFFFFB
00000000
00000002
00000002
00000004
00000003
00000003
FFFFFFFF
00000002
FFFFFFFE
00000000
00000004
00000003
00000003
00000000
00000002
00000003
FFFFFFFF
FFFFFFFF
FFFFFFFA
FFFFFFF6
FFFFFFF9
FFFFFFFA
FFFFFFFA
FFFFFFFD
FFFFFFFB
FFFFFFFC
FFFFFFFA
00000000
FFFFFFFF
00000001
00000000
00000001
00000002
00000001
00000000
FFFFFFFE
00000001
00000004
00000003
00000005
00000005
00000002
00000002
00000004
00000004
00000000
00000002
FFFFFFF8
FFFFFFF9
FFFFFFF7
FFFFFFFB
FFFFFFFF
FFFFFFFF
FFFFFFFD
FFFFFFFE
00000004
00000001
00000001
00000003
00000003
00000000
00000002
FFFFFFFF
FFFFFFFE
00000004
00000005
00000005
00000007
00000006
00000003
00000004
00000004
00000006
00000005
00000000
FFFFFFF7
FFFFFFFF
FFFFFFFD
00000003
FFFFFFFE
FFFFFFFF
FFFFFFFB
FFFFFFFD
00000004
FFFFFFFD
00000003
00000004
00000004
00000002
00000001
00000003
00000003
00000003
00000003
00000001
00000004
00000006
00000004
00000007
00000006
00000005
00000002
FFFFFFFC
FFFFFFF4
00000002
FFFFFFFA
00000000
FFFFFFFE
00000001
FFFFFFF9
00000000
00000001
FFFFFFFE
FFFFFFFF
00000000
00000005
00000001
00000002
00000004
00000003
00000001
00000004
00000005
00000006
00000007
00000003
00000004
00000000
00000001
00000005
FFFFFFFE
FFFFFFF2
FFFFFFFF
00000002
00000000
FFFFFFFE
FFFFFFFF
00000001
FFFFFFFE
FFFFFFFE
FFFFFFFF
00000004
00000001
00000003
00000000
00000001
00000004
00000005
00000004
00000002
00000003
00000004
00000003
00000004
FFFFFFFE
FFFFFFFF
FFFFFFFC
00000000
FFFFFFFC
FFFFFFF9
FFFFFFFC
FFFFFFFD
FFFFFFFD
00000002
FFFFFFFC
00000002
FFFFFFFD
FFFFFFFC
00000000
00000000
00000004
00000004
00000005
00000005
00000003
00000004
00000004
00000003
00000003
00000004
00000000
00000000
FFFFFFFD
FFFFFFFD
FFFFFFFE
FFFFFFFD
FFFFFFFD
FFFFFFFA
00000000
00000000
FFFFFFFD
FFFFFFFD
00000001
FFFFFFFC
FFFFFFFF
FFFFFFFD
00000000
00000004
00000002
00000001
00000001
00000001
00000002
00000006
00000003
00000003
00000001
00000002
FFFFFFFF
FFFFFFFF
FFFFFFFF
FFFFFFFE
FFFFFFFF
FFFFFFFD
FFFFFFFB
FFFFFFFB
FFFFFFFB
00000005
FFFFFFFE
00000000
FFFFFFFB
FFFFFFFB
00000003
FFFFFFFF
FFFFFFFF
00000000
00000002
FFFFFFFF
FFFFFFFA
FFFFFFFE
00000002
00000000
00000002
00000003
00000000
00000002
FFFFFFFE
FFFFFFFE
FFFFFFFD
FFFFFFFD
00000000
FFFFFFFE
FFFFFFFF
FFFFFFFB
FFFFFFFB
00000006
FFFFFFFD
00000000
00000001
FFFFFFFA
00000001
FFFFFFFF
00000000
00000000
FFFFFFFF
FFFFFFFB
FFFFFFFA
FFFFFFFB
FFFFFFFB
FFFFFFFC
FFFFFFFF
00000001
FFFFFFFD
00000000
FFFFFFFD
00000001
FFFFFFFD
FFFFFFFD
FFFFFFFF
00000001
FFFFFFFE
00000002
00000000
00000001
00000000
FFFFFFFF
00000002
FFFFFFFB
FFFFFFFA
FFFFFFFD
00000001
00000000
FFFFFFFD
FFFFFFFF
FFFFFFFF
FFFFFFFF
FFFFFFFC
FFFFFFFF
FFFFFFFE
FFFFFFFC
FFFFFFFC
FFFFFFFC
FFFFFFFD
FFFFFFFE
FFFFFFFD
FFFFFFFF
00000000
00000000
00000000
00000001
FFFFFFFD
FFFFFFFC
00000000
FFFFFFFF
00000003
FFFFFFFD
FFFFFFFC
FFFFFFFC
FFFFFFFC
FFFFFFFF
00000000
00000000
FFFFFFFE
FFFFFFFF
FFFFFFFE
FFFFFFFF
FFFFFFFD
FFFFFFFE
FFFFFFFB
FFFFFFFD
FFFFFFFC
FFFFFFFE
FFFFFFFD
00000000
00000003
00000004
00000001
00000000
FFFFFFFE
FFFFFFF8
FFFFFFFE
00000002
FFFFFFFF
FFFFFFFC
FFFFFFFB
FFFFFFF9
FFFFFFF9
FFFFFFFD
00000000
00000003
FFFFFFFB
FFFFFFFF
FFFFFFFD
FFFFFFFB
FFFFFFFB
FFFFFFFA
FFFFFFFB
00000000
FFFFFFFF
00000004
00000004
00000004
00000006
00000006
00000004
00000001
FFFFFFFF
FFFFFFF7
00000001
00000001
FFFFFFFF
FFFFFFFE
FFFFFFF8
FFFFFFFD
00000001
00000000
00000004
00000001
FFFFFFFF
00000000
FFFFFFFE
FFFFFFFD
FFFFFFFA
FFFFFFFB
FFFFFFFC
00000000
FFFFFFFE
00000000
00000003
00000006
00000005
00000004
0000000A
FFFFFFFF
00000002
00000000
00000000
00000001
FFFFFFFF
00000003
FFFFFFFE
00000002
00000004
00000004
00000002
00000003
00000001
00000002
00000001
FFFFFFFC
FFFFFFFF
00000003
00000001
00000000
00000000
00000002
00000000
00000003
00000003
FFFFFFFE
FFFFFFFE
FFFFFFFB
00000000
FFFFFFFF
00000001
00000002
FFFFFFFF
FFFFFFFF
00000001
00000009
0000000C
00000008
00000007
00000002
00000003
00000004
00000002
00000004
00000002
00000006
00000002
00000002
00000002
00000002
00000001
00000005
00000006
00000000
00000004
00000004
FFFFFFFE
FFFFFFFF
FFFFFFFF
FFFFFFFF
00000001
00000000
00000001
FFFFFFFA
FFFFFFFA
00000000
00000000
00000001
FFFFFFFD
FFFFFFF9
FFFFFFFE
00000000
FFFFFFFF
00000004
00000004
00000002
FFFFFFFD
00000003
00000002
00000001
FFFFFFFF
FFFFFFFD
FFFFFFF9
00000002
00000002
00000000
00000000
FFFFFFFF
00000002
00000002
00000001
FFFFFFFF
00000000
00000001
FFFFFFFF
FFFFFFFF
00000000
00000002
00000000
FFFFFFFE
FFFFFFFF
00000000
00000002
FFFFFFFF
FFFFFFFF
FFFFFFFF
00000002
FFFFFFFF
00000000
FFFFFFFF
00000001
00000002
00000000
00000001
00000000
00000002
00000001
FFFFFFFE
FFFFFFFE
FFFFFFFE
FFFFFFFF
00000000
FFFFFFFF
00000002
00000000
00000002
FFFFFFFF
00000002
FFFFFFFF
00000001
FFFFFFFF
00000001
00000000
FFFFFFFF
FFFFFFFF
00000000
FFFFFFFF
00000001
FFFFFFFF
FFFFFFFE
00000001
00000001
FFFFFFFF
00000000
00000000
FFFFFFFE
00000000
00000000
FFFFFFFF
FFFFFFFF
00000000
FFFFFFFE
FFFFFFFF
00000001
00000000
00000002
00000002
00000001
00000001
00000001
00000001
00000000
00000001
FFFFFFFF
00000000
FFFFFFFE
00000001
FFFFFFFF
00000001
FFFFFFFF
FFFFFFFF
00000000
FFFFFFFF
00000001
FFFFFFFF
00000001
00000000
00000001
FFFFFFFF
00000001
FFFFFFFF
00000000
00000000
FFFFFFFF
00000002
FFFFFFFF
00000000
FFFFFFFF
00000000
00000000
FFFFFFFF
00000000
00000001
FFFFFFFF
00000001
00000002
00000000
FFFFFFFF
00000000
00000001
FFFFFFFE
00000002
00000001
00000001
FFFFFFFF
00000001
00000001
00000001
FFFFFFFE
FFFFFFFE
FFFFFFFE
FFFFFFFF
FFFFFFFE
FFFFFFFE
FFFFFFFF
00000000
FFFFFFFF
00000001
00000000
FFFFFFFF
00000000
00000001
FFFFFFFE
FFFFFFFE
FFFFFFFF
FFFFFFFF
00000001
00000002
00000000
00000000
00000000
00000002
00000002
FFFFFFFF
FFFFFFFF
00000000
00000000
00000000
00000000
FFFFFFFF
00000000
FFFFFFFE
00000001
00000000
00000000
00000000
FFFFFFFF
FFFFFFFF
00000001
00000001
FFFFFFFE
00000000
FFFFFFFF
00000000
FFFFFFFE
FFFFFFFE
00000001
FFFFFFFE
FFFFFFFF
FFFFFFFF
00000000
FFFFFFFE
00000001
00000000
FFFFFFFE
00000001
FFFFFFFF
FFFFFFFE
00000000
FFFFFFFE
FFFFFFFF
FFFFFFFF
00000000
FFFFFFFF
00000001
FFFFFFFE
00000001
00000001
00000000
00000002
00000001
FFFFFFFF
00000002
00000001
FFFFFFFF
FFFFFFFE
FFFFFFFE
00000001
00000001
00000001
00000001
FFFFFFFF
00000001
00000001
FFFFFFFF
00000000
FFFFFFFE
00000001
FFFFFFFE
FFFFFFFE
00000001
FFFFFFFF
00000001
00000000
FFFFFFFE
00000001
FFFFFFFE
FFFFFFFE
00000000
00000002
00000001
00000002
00000002
00000002
00000001
FFFFFFFF
00000000
FFFFFFFE
00000001
FFFFFFFF
00000001
00000000
FFFFFFFE
00000000
FFFFFFFF
FFFFFFFE
00000001
00000001
00000001
00000000
00000001
FFFFFFFF
FFFFFFFF
00000000
00000001
FFFFFFFF
FFFFFFFE
00000001
00000001
FFFFFFFF
00000001
00000001
FFFFFFFF
FFFFFFFF
FFFFFFFE
00000001
00000000
FFFFFFFE
00000000
FFFFFFFE
00000000
FFFFFFFE
00000001
FFFFFFFF
FFFFFFFF
FFFFFFFF
00000001
FFFFFFFF
00000000
FFFFFFFF
FFFFFFFE
00000001
00000001
00000000
FFFFFFFF
00000001
00000000
00000000
00000001
00000001
00000001
00000001
FFFFFFFE
FFFFFFFF
00000001
00000000
00000000
FFFFFFFF
FFFFFFFF
FFFFFFFF
FFFFFFFE
FFFFFFFF
FFFFFFFE
FFFFFFFE
00000000
FFFFFFFF
00000000
FFFFFFFE
00000000
FFFFFFFF
00000000
00000000
00000001
00000000
FFFFFFFF
FFFFFFFF
00000001
00000001
00000000
00000000
FFFFFFFF
00000000
FFFFFFFF
00000000
FFFFFFFF
FFFFFFFF
FFFFFFFF
00000000
00000000
FFFFFFFF
00000000
FFFFFFFE
FFFFFFFE
FFFFFFFF
00000001
FFFFFFFF
00000000
FFFFFFFF
00000000
FFFFFFFF
FFFFFFFF
00000000
00000000
00000001
00000000
FFFFFFFF
FFFFFFFE
00000002
00000001
00000001
00000000
FFFFFFFF
FFFFFFFE
FFFFFFFE
00000001
FFFFFFFF
FFFFFFFF
00000002
FFFFFFFE
FFFFFFFE
00000001
FFFFFFFF
00000001
00000001
00000001
00000000
FFFFFFFF
00000001
00000002
FFFFFFFF
00000001
00000000
00000001
FFFFFFFF
00000000
00000001
FFFFFFFE
FFFFFFFF
FFFFFFFF
00000000
FFFFFFFF
FFFFFFFF
FFFFFFFE
00000001
FFFFFFFE
00000001
00000001
00000001
00000000
00000000
FFFFFFFF
FFFFFFFE
00000000
00000001
FFFFFFFE
00000001
FFFFFFFE
00000001
00000001
FFFFFFFF
00000000
FFFFFFFF
00000000
00000000
00000000
FFFFFFFF
00000001
FFFFFFFE
00000001
FFFFFFFE
00000002
FFFFFFFE
00000001
FFFFFFFE
00000001
FFFFFFFE
00000000
00000001
00000000
FFFFFFFE
FFFFFFFF
FFFFFFFF
00000001
FFFFFFFF
FFFFFFFE
00000002
FFFFFFFF
FFFFFFFF
FFFFFFFE
FFFFFFFF
00000000
00000001
00000000
FFFFFFFF
FFFFFFFE
FFFFFFFE
00000000
00000001
00000000
FFFFFFFE
FFFFFFFE
FFFFFFFE
FFFFFFFF
00000001
FFFFFFFF
FFFFFFFF
00000000
00000000
00000001
FFFFFFFF
00000001
00000000
00000002
FFFFFFFF
00000002
00000000
00000002
00000001
00000001
00000001
00000000
FFFFFFFE
00000000
FFFFFFFE
FFFFFFFF
FFFFFFFF
FFFFFFFF
00000001
00000001
00000001
FFFFFFFE
00000000
FFFFFFFE
00000000
FFFFFFFF
FFFFFFFE
00000000
00000001
FFFFFFFF
FFFFFFFE
00000000
00000000
FFFFFFFF
FFFFFFFF
FFFFFFFF
FFFFFFFF
00000001
00000000
00000001
FFFFFFFF
00000000
FFFFFFFE
FFFFFFFE
FFFFFFFF
00000001
00000001
00000001
00000000
00000001
FFFFFFFE
00000001
00000000
FFFFFFFE
00000000
FFFFFFFF
00000000
00000001
00000000
FFFFFFFF
00000000
00000001
00000001
FFFFFFFF
00000001
FFFFFFFF
00000000
00000002
00000001
00000001
FFFFFFFF
00000000
00000001
00000000
FFFFFFFE
FFFFFFFE
00000001
FFFFFFFF
FFFFFFFE
00000000
00000000
FFFFFFFE
FFFFFFFF
00000001
FFFFFFFE
FFFFFFFF
00000001
00000001
00000001
00000001
FFFFFFFE
00000001
00000001
FFFFFFFF
00000000
00000000
FFFFFFFF
FFFFFFFF
FFFFFFFF
FFFFFFFE
00000001
FFFFFFFF
FFFFFFFF
FFFFFFFE
00000000
00000001
FFFFFFFF
FFFFFFFF
FFFFFFFF
00000001
00000002
00000000
00000000
FFFFFFFF
00000002
00000002
00000000
00000001
00000001
FFFFFFFF
00000001
00000000
00000000
FFFFFFFE
00000000
00000001
00000002
00000000
00000000
00000001
FFFFFFFF
00000001
00000000
FFFFFFFE
00000000
FFFFFFFF
00000000
00000000
FFFFFFFE
00000000
00000001
00000001
FFFFFFFE
FFFFFFFE
FFFFFFFF
00000001
FFFFFFFF
00000002
FFFFFFFF
FFFFFFFE
00000000
FFFFFFFE
00000001
FFFFFFFF
FFFFFFFF
FFFFFFFF
FFFFFFFF
FFFFFFFF
00000000
FFFFFFFE
00000001
00000001
00000001
00000000
00000000
FFFFFFFF
00000001
00000001
00000000
00000000
00000000
00000000
00000000
00000000
00000000
FFFFFFFE
FFFFFFFF
00000000
00000000
FFFFFFFF
FFFFFFFF
00000002
00000000
FFFFFFFE
00000000
FFFFFFFE
FFFFFFFF
00000001
00000000
00000001
00000001
FFFFFFFF
FFFFFFFE
FFFFFFFF
00000000
FFFFFFFE
FFFFFFFF
00000000
00000002
00000001
00000001
00000001
00000000
00000000
00000001
FFFFFFFF
FFFFFFFE
FFFFFFFF
00000000
00000000
00000000
00000000
FFFFFFFF
00000000
FFFFFFFF
FFFFFFFF
00000000
00000001
FFFFFFFE
FFFFFFFF
00000001
00000001
FFFFFFFF
00000000
FFFFFFFF
00000002
FFFFFFFF
FFFFFFFF
00000000
00000002
00000001
FFFFFFFF
FFFFFFFF
00000000
00000001
00000000
00000001
00000001
00000001
00000000
FFFFFFFF
00000000
00000000
00000001
00000001
FFFFFFFF
FFFFFFFE
FFFFFFFF
00000000
00000000
00000001
00000000
00000001
00000000
00000000
00000000
00000001
00000001
00000001
00000002
00000001
FFFFFFFF
00000001
00000002
00000000
00000000
FFFFFFFF
00000001
FFFFFFFE
FFFFFFFE
00000000
FFFFFFFF
FFFFFFFF
00000001
00000001
FFFFFFFF
00000000
FFFFFFFF
00000002
FFFFFFFF
00000001
00000000
00000001
00000000
00000002
00000002
00000000
00000000
00000000
00000000
FFFFFFFF
FFFFFFFE
00000001
FFFFFFFF
FFFFFFFE
FFFFFFFE
00000000
00000000
00000001
FFFFFFFE
00000000
FFFFFFFE
FFFFFFFF
00000001
FFFFFFFF
FFFFFFFF
00000001
00000000
FFFFFFFF
FFFFFFFF
FFFFFFFF
00000001
00000000
00000000
00000000
00000001
00000001
FFFFFFFE
00000000
FFFFFFFF
FFFFFFFF
FFFFFFFF
00000000
FFFFFFFE
00000001
FFFFFFFE
00000001
00000001
00000000
00000000
00000000
00000001
FFFFFFFE
00000000
FFFFFFFF
00000001
FFFFFFFF
00000002
FFFFFFFE
FFFFFFFF
FFFFFFFF
FFFFFFFF
00000002
00000000
00000000
FFFFFFFE
FFFFFFFF
00000000
00000000
FFFFFFFF
00000001
00000001
FFFFFFFF
00000000
00000001
00000001
00000000
00000001
FFFFFFFF
00000000
FFFFFFFF
00000002
FFFFFFFF
00000000
FFFFFFFF
00000001
FFFFFFFF
00000002
00000000
00000000
00000000
FFFFFFFF
FFFFFFFF
00000001
FFFFFFFE
FFFFFFFE
00000001
00000001
00000000
00000001
FFFFFFFF
FFFFFFFD
FFFFFFFE
00000001
00000001
00000000
00000000
00000001
FFFFFFFF
FFFFFFFF
FFFFFFFE
00000001
00000003
00000002
00000001
FFFFFFFE
00000001
00000000
00000001
00000002
FFFFFFFF
00000001
00000001
FFFFFFFC
FFFFFFFE
00000000
FFFFFFFE
FFFFFFFE
FFFFFFFC
FFFFFFF7
FFFFFFF8
00000000
FFFFFFFC
00000005
00000006
00000003
00000001
00000001
00000001
00000000
00000001
00000000
FFFFFFFF
00000002
00000002
00000000
FFFFFFFE
00000001
00000004
00000003
00000000
FFFFFFFB
FFFFFFFB
FFFFFFFE
00000003
00000003
00000002
FFFFFFFC
00000003
00000001
FFFFFFFF
FFFFFFFF
FFFFFFFF
FFFFFFFE
FFFFFFFB
FFFFFFFE
00000000
00000000
FFFFFFFD
FFFFFFFF
00000002
00000006
00000003
FFFFFFFE
FFFFFFFE
FFFFFFFF
00000003
FFFFFFFD
FFFFFFFD
FFFFFFFE
FFFFFFFF
FFFFFFFE
FFFFFFFD
FFFFFFFF
FFFFFFFE
FFFFFFFF
00000001
00000003
00000002
00000003
00000001
00000000
00000002
FFFFFFFF
00000002
00000001
FFFFFFFF
00000002
00000005
00000004
00000006
FFFFFFFF
FFFFFFFF
00000000
FFFFFFFF
FFFFFFFD
00000000
00000000
FFFFFFFF
FFFFFFFB
FFFFFFFB
FFFFFFFF
FFFFFFFE
00000002
00000002
00000008
00000005
00000006
FFFFFFFE
FFFFFFFD
00000001
00000000
FFFFFFFF
00000001
00000005
00000004
00000008
00000008
00000004
00000002
00000000
FFFFFFFF
FFFFFFFC
FFFFFFF9
FFFFFFFA
FFFFFFFD
FFFFFFFF
00000000
00000002
00000001
00000006
00000008
00000007
0000000A
00000008
00000004
00000000
FFFFFFFE
FFFFFFFF
FFFFFFFE
00000002
00000001
00000004
00000006
00000007
00000008
00000002
00000002
FFFFFFFE
FFFFFFFA
FFFFFFFC
FFFFFFFA
FFFFFFF2
FFFFFFFB
FFFFFFFE
00000000
00000004
00000005
0000000A
00000008
00000009
00000006
00000009
00000002
00000002
FFFFFFFD
00000000
FFFFFFFF
00000003
00000003
00000002
00000001
00000004
00000003
FFFFFFFF
00000001
FFFFFFFF
FFFFFFFA
FFFFFFF9
FFFFFFFA
FFFFFFF7
FFFFFFFA
FFFFFFFF
00000001
00000002
00000004
00000008
00000008
00000008
00000007
00000005
00000001
FFFFFFFF
FFFFFFFF
FFFFFFFD
00000001
FFFFFFFD
FFFFFFFD
FFFFFFFD
FFFFFFFE
00000003
00000003
00000001
00000006
FFFFFFFD
FFFFFFFE
FFFFFFFA
FFFFFFF8
FFFFFFFB
FFFFFFFF
00000002
00000003
00000004
00000005
00000009
00000005
00000001
00000004
00000002
FFFFFFFF
FFFFFFF9
FFFFFFFB
FFFFFFFE
FFFFFFFD
FFFFFFF9
FFFFFFF9
FFFFFFFC
FFFFFFFC
00000005
00000007
00000005
00000000
FFFFFFFF
FFFFFFFB
FFFFFFFD
FFFFFFFD
00000002
00000000
00000004
00000003
00000006
00000006
00000007
00000002
00000003
00000002
00000001
FFFFFFFC
FFFFFFFC
FFFFFFFC
FFFFFFFB
FFFFFFFA
FFFFFFFB
FFFFFFFB
FFFFFFF9
FFFFFFFB
00000005
00000009
00000007
FFFFFFFE
FFFFFFFC
FFFFFFFF
00000001
00000003
00000004
00000002
00000005
00000000
00000002
00000002
FFFFFFFF
FFFFFFFF
00000002
00000005
FFFFFFFF
FFFFFFFD
FFFFFFFB
00000001
00000000
FFFFFFFD
FFFFFFF8
FFFFFFF8
FFFFFFFB
FFFFFFFE
00000004
00000008
00000009
00000003
FFFFFFFC
00000001
00000005
00000002
00000003
00000004
00000004
00000004
00000003
00000001
FFFFFFFE
FFFFFFFF
00000001
00000000
FFFFFFFD
FFFFFFFC
FFFFFFFC
00000000
FFFFFFFF
FFFFFFFD
FFFFFFFC
FFFFFFFD
FFFFFFFA
FFFFFFFE
FFFFFFFE
FFFFFFFF
00000006
00000005
00000003
00000001
00000005
00000006
00000000
00000003
00000002
00000003
00000002
00000001
FFFFFFFD
FFFFFFFD
FFFFFFFB
FFFFFFFD
FFFFFFFE
FFFFFFFA
FFFFFFFA
FFFFFFFF
FFFFFFFE
00000000
00000001
FFFFFFFF
FFFFFFFC
FFFFFFFF
FFFFFFFD
FFFFFFFD
FFFFFFFF
00000001
00000001
00000001
00000005
FFFFFFFF
FFFFFFFF
FFFFFFFC
00000000
00000000
00000000
FFFFFFFF
FFFFFFFD
FFFFFFFB
FFFFFFFD
FFFFFFFF
00000000
FFFFFFFC
FFFFFFFB
FFFFFFFE
FFFFFFFC
FFFFFFFC
00000001
00000001
FFFFFFFE
00000003
00000002
FFFFFFFA
00000001
FFFFFFFE
00000000
FFFFFFFD
FFFFFFFA
FFFFFFFB
00000000
FFFFFFFA
FFFFFFFE
FFFFFFFF
FFFFFFFE
FFFFFFFF
FFFFFFFC
FFFFFFFB
00000001
00000000
FFFFFFFF
FFFFFFFD
FFFFFFFE
FFFFFFFE
FFFFFFFC
FFFFFFFB
FFFFFFFE
FFFFFFFF
FFFFFFFA
FFFFFFFF
00000002
FFFFFFFA
FFFFFFFB
00000001
00000000
FFFFFFFF
FFFFFFFB
FFFFFFFE
FFFFFFFB
FFFFFFFA
FFFFFFFA
FFFFFFFB
FFFFFFFD
FFFFFFFC
FFFFFFFC
FFFFFFFE
00000001
00000001
00000001
FFFFFFFE
FFFFFFFD
FFFFFFFC
FFFFFFFB
FFFFFFFB
FFFFFFFF
FFFFFFFE
FFFFFFFF
00000003
00000003
FFFFFFFD
FFFFFFFF
00000002
00000000
FFFFFFFF
FFFFFFFD
00000001
FFFFFFFB
FFFFFFFB
FFFFFFFB
FFFFFFFA
FFFFFFFE
FFFFFFFD
FFFFFFFD
FFFFFFFD
00000003
00000003
00000004
FFFFFFFE
FFFFFFFC
FFFFFFFA
FFFFFFFA
FFFFFFFD
00000000
FFFFFFFF
FFFFFFFF
00000000
00000000
FFFFFFFF
00000001
FFFFFFFF
00000000
FFFFFFFF
FFFFFFFB
00000001
FFFFFFFF
FFFFFFFA
FFFFFFFC
FFFFFFFE
FFFFFFFA
FFFFFFFB
FFFFFFFD
FFFFFFFB
FFFFFFFD
FFFFFFFF
FFFFFFFF
FFFFFFFE
FFFFFFFB
FFFFFFFF
FFFFFFFD
00000000
00000002
00000001
00000004
00000002
00000002
FFFFFFFF
FFFFFFFE
00000003
00000001
00000003
00000002
FFFFFFFF
FFFFFFFE
FFFFFFFA
FFFFFFFD
FFFFFFFF
FFFFFFFF
FFFFFFFC
FFFFFFFC
FFFFFFFA
FFFFFFFE
00000001
00000000
FFFFFFFF
00000000
00000001
00000001
00000003
00000005
00000001
00000004
00000004
00000004
00000008
00000003
00000005
FFFFFFFF
00000000
00000002
00000001
00000000
FFFFFFFF
FFFFFFFE
FFFFFFFD
00000001
00000000
FFFFFFFD
00000001
00000002
00000002
00000003
00000002
00000004
00000005
00000007
00000007
00000005
00000003
00000007
00000007
00000007
00000009
00000002
00000000
00000003
FFFFFFFE
FFFFFFFF
00000004
00000007
00000002
00000003
00000004
00000003
00000004
00000001
00000004
00000003
00000002
00000004
00000007
00000007
00000004
00000007
00000005
00000009
00000007
00000006
00000006
00000009
00000008
00000004
FFFFFFFE
00000003
FFFFFFFD
FFFFFFFF
00000005
00000008
00000006
00000003
00000004
00000004
00000004
00000002
00000003
00000004
00000003
00000008
00000005
00000006
00000005
00000007
00000004
00000006
00000002
00000006
0000000A
00000005
00000002
00000003
FFFFFFFF
00000001
00000001
FFFFFFFB
00000003
00000004
00000005
00000003
00000002
00000001
00000001
00000002
00000004
00000002
00000002
00000006
00000008
00000005
00000005
00000002
FFFFFFFE
00000002
00000001
00000005
00000006
00000002
00000004
00000005
FFFFFFFF
00000002
00000000
FFFFFFFB
FFFFFFFD
00000000
00000000
FFFFFFFF
00000001
FFFFFFFD
FFFFFFFD
FFFFFFFF
FFFFFFFE
00000000
00000001
00000000
00000001
00000001
00000003
00000005
00000005
00000003
00000004
00000004
00000007
00000006
00000000
00000002
00000001
FFFFFFFF
00000000
00000003
00000001
FFFFFFF9
FFFFFFFA
FFFFFFFD
FFFFFFFB
FFFFFFFC
FFFFFFFB
FFFFFFFA
FFFFFFFC
00000002
FFFFFFFF
FFFFFFFF
FFFFFFFF
00000002
00000008
00000007
0000000A
00000009
00000007
00000007
00000009
0000000A
00000000
FFFFFFFF
00000000
00000000
FFFFFFFF
00000000
FFFFFFFF
FFFFFFFE
FFFFFFFE
FFFFFFFD
FFFFFFF9
FFFFFFF9
FFFFFFFA
FFFFFFFE
00000004
00000004
00000001
00000001
00000004
00000008
0000000A
00000005
00000007
0000000A
00000008
0000000A
00000006
00000003
00000001
00000000
FFFFFFFF
FFFFFFFF
FFFFFFFE
00000001
00000001
FFFFFFFF
FFFFFFFE
FFFFFFFE
FFFFFFFF
00000000
FFFFFFFF
FFFFFFFF
00000003
FFFFFFFF
00000000
00000002
00000000
00000000
00000000
00000000
00000000
FFFFFFFD
00000002
00000008
00000004
00000000
00000001
FFFFFFFE
00000001
FFFFFFFE
FFFFFFFF
00000000
FFFFFFFF
FFFFFFFF
FFFFFFFE
FFFFFFFE
FFFFFFFF
00000002
00000000
FFFFFFFF
00000000
FFFFFFFE
FFFFFFFE
00000001
00000000
00000000
FFFFFFFF
FFFFFFFF
00000000
00000001
00000001
00000000
FFFFFFFE
00000001
00000000
FFFFFFFF
FFFFFFFE
00000000
00000000
00000000
FFFFFFFE
00000000
FFFFFFFF
00000001
FFFFFFFE
FFFFFFFE
FFFFFFFF
FFFFFFFE
FFFFFFFE
FFFFFFFC
FFFFFFFD
00000001
00000002
FFFFFFFD
FFFFFFFC
FFFFFFFD
FFFFFFFA
FFFFFFFB
FFFFFFFB
FFFFFFFB
FFFFFFFB
FFFFFFFF
00000001
00000000
00000002
00000000
FFFFFFFF
00000001
00000001
FFFFFFFB
FFFFFFFD
FFFFFFFC
FFFFFFFB
FFFFFFFB
FFFFFFFB
FFFFFFF5
FFFFFFF7
FFFFFFF6
FFFFFFFC
FFFFFFFA
00000001
00000000
00000002
00000006
00000001
00000001
FFFFFFFE
FFFFFFFE
FFFFFFFF
FFFFFFFA
FFFFFFFE
FFFFFFFF
00000000
00000001
00000000
00000005
00000001
00000001
00000003
00000003
00000004
00000002
FFFFFFFA
FFFFFFFF
FFFFFFFF
00000001
00000000
FFFFFFFC
00000001
00000001
FFFFFFFF
00000003
FFFFFFFD
00000000
00000001
00000002
00000001
FFFFFFFF
00000002
00000000
00000001
FFFFFFFF
00000001
00000003
00000004
00000002
00000000
00000001
00000002
FFFFFFFF
FFFFFFFE
00000001
FFFFFFFF
00000000
FFFFFFFD
00000002
00000001
00000001
FFFFFFFE
FFFFFFFF
00000000
00000001
FFFFFFFF
FFFFFFFE
00000000
00000005
00000002
00000003
FFFFFFFD
00000000
00000000
00000000
00000000
FFFFFFFD
FFFFFFFE
FFFFFFFF
FFFFFFFF
FFFFFFFB
FFFFFFFE
FFFFFFFD
00000005
00000005
00000001
00000001
00000002
00000002
FFFFFFFF
FFFFFFFE
00000002
00000001
00000003
00000001
FFFFFFFD
00000001
00000003
00000002
FFFFFFFD
FFFFFFFF
00000002
00000001
FFFFFFFD
FFFFFFFC
FFFFFFFC
FFFFFFFE
FFFFFFFE
FFFFFFFF
00000003
00000002
00000004
00000002
00000001
00000001
00000001
00000002
00000002
00000003
00000001
00000005
00000002
FFFFFFFD
00000001
00000003
00000007
00000004
00000001
FFFFFFFF
FFFFFFFF
FFFFFFFE
FFFFFFFB
FFFFFFFC
FFFFFFFC
FFFFFFFD
FFFFFFFD
00000004
00000003
00000002
00000001
00000004
00000002
00000002
00000005
00000002
00000000
00000001
FFFFFFFF
00000003
00000001
00000000
00000004
00000003
00000006
00000003
00000001
FFFFFFFC
FFFFFFFE
FFFFFFF7
FFFFFFFE
FFFFFFFA
FFFFFFFC
00000004
00000000
00000001
00000001
00000003
00000002
00000004
00000002
00000002
00000003
00000003
00000000
00000000
00000002
00000000
00000002
00000001
00000004
00000006
00000007
00000006
00000006
FFFFFFFE
FFFFFFFE
FFFFFFFD
00000000
FFFFFFFF
FFFFFFFF
00000005
00000004
00000003
00000003
00000003
00000002
00000003
00000003
00000002
00000000
00000002
00000000
FFFFFFFE
00000002
00000001
00000001
00000004
00000005
00000007
00000009
0000000A
FFFFFFFE
FFFFFFFC
FFFFFFF9
FFFFFFF3
FFFFFFFF
00000004
00000003
00000005
00000004
00000004
00000001
00000000
FFFFFFFF
00000002
00000004
00000008
00000004
00000002
FFFFFFFF
FFFFFFFE
00000001
00000002
FFFFFFFF
00000002
00000006
00000008
00000009
00000009
FFFFFFFF
FFFFFFFC
FFFFFFF9
FFFFFFF6
00000002
00000007
00000004
00000003
00000002
00000003
00000000
FFFFFFFF
FFFFFFFE
00000000
00000005
0000000D
00000008
00000002
FFFFFFFF
FFFFFFFF
FFFFFFFF
00000001
FFFFFFFE
FFFFFFFF
00000004
0000000A
0000000A
0000000A
00000002
FFFFFFFD
FFFFFFF6
FFFFFFF9
00000004
00000008
00000004
00000001
00000002
FFFFFFFD
FFFFFFFD
FFFFFFFE
FFFFFFFC
FFFFFFFF
00000005
0000000B
00000006
00000003
00000002
00000002
00000001
00000001
FFFFFFFE
FFFFFFFF
00000003
00000000
00000001
00000005
FFFFFFFC
00000000
FFFFFFFC
FFFFFFF8
00000003
00000002
00000002
FFFFFFFB
FFFFFFFE
FFFFFFFC
FFFFFFFD
FFFFFFFC
00000000
00000002
00000005
00000009
00000004
00000001
00000001
FFFFFFFF
00000004
00000004
00000001
FFFFFFFC
FFFFFFFD
FFFFFFFA
FFFFFFFC
00000000
00000000
FFFFFFFC
00000003
FFFFFFFB
00000000
FFFFFFFF
FFFFFFFA
FFFFFFFC
FFFFFFF9
FFFFFFFC
FFFFFFFD
FFFFFFFE
00000002
00000002
00000005
00000007
00000004
00000000
00000000
00000002
00000003
00000002
00000000
FFFFFFFD
FFFFFFF9
FFFFFFF7
FFFFFFFB
FFFFFFF7
FFFFFFFD
FFFFFFFB
00000002
FFFFFFFB
FFFFFFFB
FFFFFFFE
FFFFFFFB
FFFFFFFD
FFFFFFFC
FFFFFFFC
FFFFFFFD
FFFFFFFF
00000001
00000002
00000007
00000004
00000001
00000000
FFFFFFFF
00000002
00000002
00000000
FFFFFFFC
FFFFFFFB
FFFFFFFA
FFFFFFF8
FFFFFFFA
FFFFFFF7
FFFFFFFD
FFFFFFFD
00000003
00000002
FFFFFFFF
FFFFFFFD
FFFFFFFD
FFFFFFFD
FFFFFFFC
FFFFFFFD
FFFFFFFF
FFFFFFFE
00000000
00000005
00000004
00000001
FFFFFFFD
FFFFFFFE
FFFFFFFF
FFFFFFFD
FFFFFFFF
FFFFFFFF
FFFFFFFD
FFFFFFFD
FFFFFFFD
FFFFFFFD
FFFFFFF8
FFFFFFFA
FFFFFFFC
00000001
00000003
FFFFFFFF
FFFFFFFF
FFFFFFFF
FFFFFFFF
00000003
00000001
00000000
00000000
FFFFFFFF
00000001
00000001
00000003
FFFFFFFE
FFFFFFFD
FFFFFFFE
FFFFFFFF
FFFFFFFE
00000000
00000001
FFFFFFFB
FFFFFFFC
00000000
FFFFFFFE
FFFFFFF2
FFFFFFFD
FFFFFFF9
00000003
00000002
FFFFFFFF
FFFFFFFF
FFFFFFFD
00000000
00000004
00000002
00000001
00000001
00000001
00000003
00000000
00000001
00000000
00000000
FFFFFFFE
00000000
FFFFFFFC
FFFFFFFF
00000001
FFFFFFFD
FFFFFFFE
FFFFFFFE
FFFFFFFE
FFFFFFFA
FFFFFFFF
FFFFFFF8
00000001
FFFFFFFB
00000001
FFFFFFFC
FFFFFFFA
00000001
00000000
FFFFFFFE
00000001
00000001
00000002
FFFFFFFF
00000000
FFFFFFFF
FFFFFFFE
FFFFFFFD
FFFFFFFF
FFFFFFFF
00000002
00000000
FFFFFFFE
FFFFFFFD
FFFFFFFF
00000001
00000002
00000002
FFFFFFFF
FFFFFFF9
FFFFFFFF
FFFFFFFD
FFFFFFFA
FFFFFFF9
FFFFFFFC
00000000
00000002
FFFFFFFE
00000000
FFFFFFFF
00000000
FFFFFFFB
FFFFFFFC
00000001
FFFFFFFE
00000002
00000000
00000002
00000001
00000001
00000001
FFFFFFFE
00000003
00000005
00000004
00000007
00000001
00000002
FFFFFFFE
00000000
FFFFFFFD
FFFFFFFA
FFFFFFFC
FFFFFFFF
00000002
00000003
FFFFFFFF
FFFFFFFE
FFFFFFFD
FFFFFFFD
FFFFFFFE
00000000
00000001
00000002
00000000
00000000
FFFFFFFD
00000001
00000002
00000001
00000000
00000000
00000000
00000003
FFFFFFFB
FFFFFFFD
FFFFFFFD
00000003
FFFFFFFB
00000000
00000002
FFFFFFFC
FFFFFFFE
FFFFFFFE
FFFFFFFE
FFFFFFFF
FFFFFFFE
00000001
00000001
FFFFFFFF
00000003
FFFFFFFE
00000000
FFFFFFFF
FFFFFFFF
FFFFFFFF
FFFFFFFF
FFFFFFFE
FFFFFFFF
00000002
00000003
00000002
00000001
00000000
FFFFFFFF
FFFFFFFF
00000004
00000007
00000002
00000003
FFFFFFFC
FFFFFFFB
FFFFFFFF
FFFFFFFC
FFFFFFFD
FFFFFFFE
00000000
00000000
FFFFFFFF
00000003
00000001
00000000
00000000
FFFFFFFD
00000001
FFFFFFFB
00000001
00000004
00000005
00000000
FFFFFFFC
00000002
FFFFFFFE
00000002
00000001
0000000A
00000001
00000000
FFFFFFFC
FFFFFFFF
00000000
FFFFFFFD
00000002
00000002
00000001
00000003
00000003
00000003
00000004
FFFFFFFF
FFFFFFFD
00000002
00000002
00000000
00000002
00000005
FFFFFFFF
FFFFFFF9
FFFFFFFF
00000001
00000000
00000000
00000007
FFFFFFFD
FFFFFFF9
00000002
00000003
00000005
00000006
00000005
00000007
00000007
00000006
00000006
00000007
00000004
00000008
0000000A
00000007
0000000A
00000007
00000003
00000001
00000004
00000006
00000000
FFFFFFFE
FFFFFFFF
00000001
FFFFFFFF
00000002
00000003
00000000
00000002
00000004
00000007
00000003
00000007
00000008
00000009
00000009
00000008
0000000B
00000007
00000009
0000000E
0000000E
00000006
0000000F
0000000B
00000005
00000005
00000004
FFFFFFFF
00000002
FFFFFFFF
00000000
00000001
00000002
FFFFFFFE
FFFFFFFD
FFFFFFF9
FFFFFFFC
FFFFFFFF
FFFFFFFF
FFFFFFFA
00000002
00000001
00000004
FFFFFFFF
00000007
00000004
00000001
FFFFFFFD
00000001
00000000
00000001
FFFFFFFF
FFFFFFF9
FFFFFFFD
00000002
FFFFFFFF
00000000
00000002
FFFFFFFF
00000001
00000001
FFFFFFFE
00000001
FFFFFFFF
00000001
FFFFFFFF
FFFFFFFF
00000000
FFFFFFFF
00000000
00000000
00000001
00000004
00000000
FFFFFFFF
00000001
00000000
00000001
FFFFFFFE
FFFFFFFF
00000000
00000001
00000001
00000001
FFFFFFFF
FFFFFFFF
FFFFFFFF
FFFFFFFF
00000001
00000000
00000000
00000001
00000000
00000001
00000001
00000003
FFFFFFFD
00000004
00000005
00000000
00000000
00000005
00000006
00000005
FFFFFFFD
00000000
00000001
FFFFFFFE
00000002
00000002
00000002
FFFFFFFE
00000002
FFFFFFFF
FFFFFFFF
FFFFFFFF
00000000
00000004
00000004
00000000
FFFFFFFF
00000001
FFFFFFFF
FFFFFFFE
00000002
00000003
00000004
FFFFFFFF
FFFFFFFF
FFFFFFFE
FFFFFFFE
FFFFFFFC
FFFFFFFF
FFFFFFF7
FFFFFFF6
FFFFFFFB
FFFFFFFF
00000001
00000001
00000005
00000001
FFFFFFFF
00000002
FFFFFFFF
00000004
00000003
FFFFFFFC
00000001
00000002
00000000
00000003
FFFFFFFD
FFFFFFFF
00000000
00000002
00000001
00000000
FFFFFFFF
FFFFFFFF
FFFFFFFF
FFFFFFFD
FFFFFFFA
FFFFFFF9
FFFFFFFA
FFFFFFFA
FFFFFFFC
FFFFFFFA
FFFFFFFD
FFFFFFFC
00000000
00000001
00000002
00000004
00000004
FFFFFFFF
00000003
00000001
FFFFFFFE
00000002
00000001
00000002
00000002
00000003
00000001
00000007
00000004
00000003
00000000
00000000
FFFFFFFF
FFFFFFFC
FFFFFFFA
FFFFFFFB
FFFFFFF6
FFFFFFF8
FFFFFFFF
00000004
00000001
FFFFFFFE
00000001
00000004
00000000
FFFFFFFE
00000003
00000002
00000000
FFFFFFFB
FFFFFFFB
FFFFFFFC
00000001
00000002
00000006
00000006
00000005
00000003
00000002
00000000
00000003
00000001
00000001
FFFFFFFF
FFFFFFF9
FFFFFFF9
00000000
00000001
FFFFFFFC
00000000
00000002
00000001
00000005
00000000
FFFFFFFB
FFFFFFFD
FFFFFFFC
FFFFFFFB
00000000
00000003
00000002
00000002
00000004
00000002
00000004
00000004
00000004
00000004
00000002
00000004
00000002
FFFFFFFE
FFFFFFFD
FFFFFFFB
FFFFFFFF
FFFFFFFD
FFFFFFFE
00000002
00000008
00000003
00000003
00000004
FFFFFFFD
00000000
00000000
00000002
00000002
00000003
FFFFFFFF
00000002
00000000
FFFFFFFE
00000004
00000000
00000001
00000003
00000002
00000001
00000004
00000004
00000003
FFFFFFFC
FFFFFFFF
FFFFFFFE
FFFFFFFE
00000005
00000006
00000002
00000006
00000002
00000002
00000006
00000005
00000003
00000002
00000000
00000000
FFFFFFFF
00000003
00000003
00000005
00000002
00000003
00000006
00000007
00000005
00000002
00000006
00000002
FFFFFFFC
FFFFFFFC
00000003
00000003
00000004
00000006
00000001
00000006
00000006
00000007
00000005
00000006
00000003
00000002
00000001
FFFFFFFF
FFFFFFFF
00000002
00000005
00000004
00000003
00000004
00000002
00000005
00000006
00000006
00000004
00000004
FFFFFFFE
FFFFFFFE
00000003
FFFFFFFB
00000004
00000004
00000001
00000000
00000006
00000004
00000007
00000005
00000002
00000001
00000001
FFFFFFFF
00000000
00000005
00000008
00000001
FFFFFFFF
00000000
00000003
00000002
00000005
00000006
00000007
00000007
FFFFFFFE
FFFFFFFB
FFFFFFFE
00000002
00000003
00000005
00000001
00000008
00000007
00000004
00000004
00000004
00000000
FFFFFFFF
FFFFFFFE
FFFFFFFE
FFFFFFFD
00000002
00000006
00000002
FFFFFFFF
FFFFFFFE
00000001
00000002
00000003
00000001
00000007
00000005
00000004
00000003
00000004
00000002
00000003
00000003
FFFFFFFF
00000005
00000007
00000004
FFFFFFFF
FFFFFFFE
FFFFFFFC
FFFFFFFC
FFFFFFFA
FFFFFFFB
FFFFFFFA
00000001
00000004
00000002
00000000
00000002
00000000
00000001
00000001
00000004
00000003
00000005
00000006
00000002
00000001
00000004
FFFFFFFE
00000002
00000002
00000003
00000000
FFFFFFFD
FFFFFFFD
FFFFFFFB
FFFFFFFD
FFFFFFFB
FFFFFFF8
FFFFFFFB
FFFFFFFE
00000004
00000007
00000002
00000000
FFFFFFFF
00000000
00000004
00000003
00000000
00000003
FFFFFFFF
00000001
00000002
00000001
00000001
FFFFFFFF
00000000
00000001
FFFFFFFD
FFFFFFFD
FFFFFFFC
FFFFFFFD
FFFFFFFA
FFFFFFFD
FFFFFFFC
FFFFFFFF
FFFFFFFF
00000000
00000005
00000006
00000004
FFFFFFFF
00000000
00000001
00000004
FFFFFFFF
00000002
00000000
FFFFFFFF
FFFFFFFC
FFFFFFFF
00000003
00000001
00000000
00000004
FFFFFFFD
FFFFFFF7
FFFFFFFC
FFFFFFFF
FFFFFFFF
FFFFFFFE
FFFFFFFE
FFFFFFFE
FFFFFFFD
00000002
00000002
00000006
00000005
00000001
00000000
FFFFFFFE
00000001
00000000
FFFFFFFE
FFFFFFFF
00000002
FFFFFFFE
FFFFFFFC
FFFFFFFB
FFFFFFFC
FFFFFFFF
00000003
00000002
00000004
FFFFFFFE
00000000
FFFFFFFD
FFFFFFFF
FFFFFFFF
00000001
00000002
00000003
00000002
00000002
00000002
00000002
FFFFFFFE
00000001
00000000
FFFFFFFE
FFFFFFFD
FFFFFFFC
FFFFFFFB
FFFFFFFC
FFFFFFFF
FFFFFFFD
FFFFFFF9
FFFFFFFC
FFFFFFFF
00000002
00000002
FFFFFFFF
FFFFFFFD
00000000
FFFFFFFE
00000001
00000000
00000001
00000004
00000004
00000005
00000006
00000003
00000001
FFFFFFFF
FFFFFFFF
FFFFFFFF
FFFFFFFE
FFFFFFFD
FFFFFFFC
FFFFFFF9
FFFFFFFC
00000002
00000004
FFFFFFFC
00000000
FFFFFFFF
00000004
00000003
00000001
FFFFFFFF
FFFFFFFB
00000001
FFFFFFFF
00000001
00000002
00000006
00000004
00000003
00000002
00000002
FFFFFFFE
FFFFFFFC
FFFFFFFE
00000000
00000000
00000000
FFFFFFFC
FFFFFFFB
00000000
00000001
00000001
FFFFFFFE
00000004
FFFFFFFD
00000000
00000002
FFFFFFFE
FFFFFFFA
FFFFFFFD
FFFFFFFE
00000000
00000000
00000005
00000005
00000006
FFFFFFFF
00000001
00000003
FFFFFFFE
FFFFFFFD
FFFFFFFD
FFFFFFFE
00000002
00000001
FFFFFFFE
FFFFFFFC
00000003
00000001
00000001
FFFFFFFB
00000001
FFFFFFFF
FFFFFFFF
00000005
FFFFFFFC
FFFFFFFD
FFFFFFFB
FFFFFFFD
00000000
00000004
FFFFFFFF
00000003
00000005
FFFFFFFF
FFFFFFFF
00000001
00000000
FFFFFFFB
FFFFFFFB
FFFFFFFC
FFFFFFFD
FFFFFFFF
00000000
00000000
00000001
FFFFFFFF
FFFFFFFA
FFFFFFFD
FFFFFFFD
FFFFFFFE
FFFFFFFE
00000002
FFFFFFFE
FFFFFFFA
FFFFFFFB
FFFFFFFB
00000000
00000002
FFFFFFFF
00000001
00000000
00000000
00000002
FFFFFFFF
FFFFFFFF
FFFFFFFC
FFFFFFFF
FFFFFFFE
FFFFFFFF
00000001
00000000
FFFFFFFF
FFFFFFFE
FFFFFFFA
FFFFFFF6
FFFFFFFB
00000002
00000000
FFFFFFFC
00000003
00000000
FFFFFFF8
FFFFFFFB
00000002
00000004
00000004
FFFFFFFF
FFFFFFFF
00000000
00000001
00000000
FFFFFFFE
00000001
FFFFFFFD
FFFFFFFF
FFFFFFFF
FFFFFFFF
00000001
00000001
FFFFFFFB
FFFFFFFF
FFFFFFFF
FFFFFFFA
FFFFFFFE
FFFFFFF9
FFFFFFFE
00000000
00000001
00000009
FFFFFFFC
00000001
00000001
00000003
00000001
FFFFFFFF
00000000
00000001
00000002
00000001
00000003
00000000
00000001
00000001
00000001
00000000
FFFFFFFF
FFFFFFFD
FFFFFFFC
00000001
00000000
FFFFFFFD
FFFFFFFD
FFFFFFF8
FFFFFFFE
00000000
00000001
00000005
00000004
00000005
00000002
00000001
FFFFFFFF
00000000
FFFFFFFF
00000001
00000002
00000001
00000002
00000000
00000002
00000000
FFFFFFFD
FFFFFFFC
FFFFFFFD
FFFFFFFC
FFFFFFFC
FFFFFFFC
FFFFFFFF
FFFFFFFC
FFFFFFFD
FFFFFFFF
FFFFFFFF
00000000
00000000
FFFFFFFD
00000002
FFFFFFFE
FFFFFFFF
00000005
00000005
00000005
00000004
00000003
00000001
00000003
00000001
00000000
00000001
00000002
00000000
00000002
00000002
00000000
FFFFFFF9
FFFFFFF8
FFFFFFFB
FFFFFFF9
00000000
00000001
FFFFFFFE
FFFFFFFF
00000001
00000000
FFFFFFFF
FFFFFFFA
FFFFFFFD
00000000
00000005
00000007
00000006
00000006
00000004
00000003
00000007
00000006
00000001
00000002
00000003
00000008
00000005
00000003
00000004
00000002
00000001
FFFFFFFF
00000001
FFFFFFFE
00000000
FFFFFFFF
FFFFFFFF
00000000
FFFFFFFF
00000005
00000006
00000007
00000004
00000003
00000003
00000007
00000005
FFFFFFFF
00000002
00000007
00000002
00000004
00000003
00000002
00000006
FFFFFFFF
00000001
FFFFFFFE
00000003
FFFFFFFF
00000002
00000000
FFFFFFFF
00000001
00000000
00000000
00000000
00000001
FFFFFFFF
00000001
00000002
00000000
00000001
FFFFFFFF
00000001
00000000
00000001
00000000
FFFFFFFF
00000001
FFFFFFFF
00000000
00000001
00000001
FFFFFFFF
00000000
FFFFFFFF
00000001
FFFFFFFE
00000002
00000000
00000000
00000000
00000000
00000001
00000002
00000002
00000005
00000006
00000004
00000002
00000005
00000002
00000005
00000005
00000005
00000006
00000006
00000008
00000006
0000000B
00000007
00000001
00000004
00000004
00000000
00000001
00000002
00000000
00000000
FFFFFFFE
00000003
00000005
00000004
00000000
00000005
00000004
00000008
00000005
00000006
00000009
00000004
00000007
00000008
0000000B
00000009
00000008
00000007
0000000D
00000008
00000004
00000004
00000007
FFFFFFFE
FFFFFFFE
00000001
FFFFFFFF
FFFFFFFF
00000001
FFFFFFFC
00000006
00000005
00000004
00000009
00000008
00000006
00000004
00000008
00000006
0000000B
00000004
00000005
00000005
00000001
00000004
00000007
0000000C
0000000B
00000008
00000004
00000003
00000004
00000004
00000001
FFFFFFFF
00000002
00000000
FFFFFFFE
00000004
FFFFFFFE
00000003
00000005
00000002
FFFFFFFF
00000002
00000002
00000001
FFFFFFFF
FFFFFFFE
00000000
00000000
00000000
00000000
00000003
00000003
00000001
00000003
FFFFFFFF
