FFFFFFFC
00000008
0000000A
00000001
00000000
FFFFFFFD
00000000
00000004
00000005
00000003
00000009
00000002
00000007
00000004
00000006
FFFFFFFE
00000005
FFFFFFFD
00000005
00000001
00000000
00000004
00000003
FFFFFFFD
00000004
FFFFFFFD
00000003
00000000
00000002
00000003
FFFFFFFF
FFFFFFFF
00000005
00000000
00000000
00000003
00000006
FFFFFFFD
00000001
00000000
00000008
FFFFFFF9
FFFFFFFC
00000005
FFFFFFFF
00000001
00000006
FFFFFFFB
00000002
FFFFFFFB
00000004
FFFFFFFC
00000007
00000003
FFFFFFFA
00000008
FFFFFFFE
0000000C
00000002
00000006
FFFFFFFE
00000000
00000008
00000001
