00000001
00000000
00000003
FFFFFFFC
FFFFFFFF
00000004
FFFFFFFF
FFFFFFFD
00000000
FFFFFFFE
00000001
00000002
FFFFFFFD
00000002
FFFFFFFE
00000002
00000002
FFFFFFFB
00000002
FFFFFFFE
FFFFFFFD
FFFFFFFB
00000003
00000000
00000001
00000001
FFFFFFFB
FFFFFFFC
00000000
FFFFFFFB
FFFFFFFC
FFFFFFFF
FFFFFFFC
FFFFFFFD
FFFFFFFB
00000003
00000002
FFFFFFFF
FFFFFFFE
FFFFFFFF
FFFFFFFF
00000002
FFFFFFFB
00000002
FFFFFFFF
FFFFFFFC
FFFFFFFC
00000000
00000004
00000002
FFFFFFFD
FFFFFFFF
00000001
00000000
00000004
00000004
00000001
00000001
00000000
00000003
00000000
FFFFFFFF
00000000
00000002
FFFFFFF9
00000001
FFFFFFFB
FFFFFFFF
00000000
FFFFFFFE
00000002
00000000
00000001
00000000
00000001
00000002
FFFFFFFF
FFFFFFFD
FFFFFFFE
FFFFFFFF
FFFFFFFC
FFFFFFFF
00000002
FFFFFFFB
00000003
FFFFFFFE
FFFFFFFE
FFFFFFFC
00000000
FFFFFFFE
FFFFFFFB
00000002
FFFFFFFA
FFFFFFFE
FFFFFFFE
FFFFFFFD
00000000
FFFFFFFF
FFFFFFFB
FFFFFFFD
00000000
FFFFFFFF
FFFFFFFC
FFFFFFFA
FFFFFFFC
FFFFFFFF
FFFFFFFE
00000003
FFFFFFFA
FFFFFFFC
FFFFFFFE
FFFFFFFD
FFFFFFFB
00000001
FFFFFFFD
00000001
FFFFFFFC
00000000
00000002
FFFFFFFE
00000000
00000001
FFFFFFFF
FFFFFFFC
FFFFFFFF
FFFFFFFA
FFFFFFFD
00000000
0000000B
0000000C
00000000
00000001
FFFFFFFD
00000001
00000002
FFFFFFF6
FFFFFFFC
00000005
00000004
00000003
00000003
00000004
FFFFFFF3
00000005
FFFFFFFC
00000003
00000010
FFFFFFFD
00000002
00000001
00000001
FFFFFFF8
FFFFFFFF
FFFFFFFF
00000006
00000002
00000004
00000005
0000000B
FFFFFFFA
00000009
FFFFFFFF
00000000
00000001
FFFFFFFE
FFFFFFFE
00000003
0000000B
00000009
FFFFFFF9
00000001
00000004
FFFFFFF8
FFFFFFFD
FFFFFFF6
FFFFFFFE
0000000F
00000006
00000000
00000002
00000000
00000007
0000000D
FFFFFFFA
0000000B
00000008
00000000
0000000C
FFFFFFF8
FFFFFFFE
00000001
00000003
00000001
00000001
00000004
FFFFFFFC
00000001
FFFFFFFF
00000007
00000004
FFFFFFFC
00000003
00000001
00000017
00000004
FFFFFFFE
00000004
FFFFFFFC
0000000B
00000005
FFFFFFF9
00000002
00000000
FFFFFFFD
00000001
00000006
FFFFFFFB
FFFFFFFC
FFFFFFFA
FFFFFFFF
FFFFFFF8
00000005
FFFFFFF6
00000001
FFFFFFF4
FFFFFFF2
00000003
FFFFFFF5
FFFFFFF5
FFFFFFFD
00000000
FFFFFFFE
00000001
FFFFFFFC
FFFFFFFE
0000000B
00000006
FFFFFFFA
FFFFFFFC
00000000
FFFFFFFE
00000002
00000000
FFFFFFFD
FFFFFFFF
FFFFFFFD
00000007
00000000
00000000
FFFFFFFB
0000000B
00000002
00000002
FFFFFFFF
00000004
00000004
FFFFFFF6
00000009
0000000E
00000000
00000000
00000006
0000000B
0000000E
00000004
FFFFFFFF
FFFFFFFD
00000002
00000001
FFFFFFFB
00000009
00000001
00000004
00000002
FFFFFFFF
FFFFFFFE
00000002
00000001
00000001
00000003
00000007
FFFFFFF9
FFFFFFFC
00000001
00000002
00000000
00000002
FFFFFFFE
FFFFFFFC
FFFFFFFE
FFFFFFF5
00000000
00000006
FFFFFFFC
00000003
FFFFFFF9
00000005
00000006
FFFFFFFD
00000000
00000001
00000006
FFFFFFFB
00000000
FFFFFFFB
00000002
FFFFFFFD
00000005
00000002
00000000
FFFFFFFE
0000000B
FFFFFFFE
FFFFFFFB
00000001
FFFFFFFF
00000017
FFFFFFFE
FFFFFFF9
FFFFFFF8
00000006
00000012
FFFFFFF9
00000002
FFFFFFF9
FFFFFFF7
00000003
00000004
0000000A
00000003
00000005
00000005
00000003
FFFFFFF3
FFFFFFFD
00000001
00000005
FFFFFFFB
00000006
00000001
FFFFFFFA
00000006
00000006
00000006
00000007
FFFFFFFF
00000005
00000004
00000003
00000004
FFFFFFF1
00000001
00000004
0000000B
00000003
00000003
00000011
00000002
FFFFFFFC
FFFFFFF8
00000005
00000000
FFFFFFFB
FFFFFFFA
FFFFFFFF
FFFFFFFC
FFFFFFFD
FFFFFFFB
00000005
00000003
00000004
00000000
00000009
FFFFFFFE
FFFFFFFF
00000005
FFFFFFFE
00000002
00000003
00000005
00000004
FFFFFFFF
00000008
FFFFFFFD
00000005
FFFFFFF6
00000006
FFFFFFFD
FFFFFFFD
00000006
FFFFFFF9
00000003
00000002
00000001
FFFFFFFF
FFFFFFFA
00000001
00000007
FFFFFFF7
FFFFFFFB
00000004
00000001
00000007
00000001
00000001
00000002
00000002
00000007
00000009
00000006
00000005
00000007
00000002
FFFFFFFF
FFFFFFF3
FFFFFFFC
00000007
FFFFFFFF
00000005
00000003
00000002
00000008
FFFFFFFC
00000003
FFFFFFFF
00000003
00000006
FFFFFFFD
FFFFFFFD
FFFFFFFD
00000001
FFFFFFFD
FFFFFFFF
00000003
00000005
00000000
FFFFFFFD
00000006
FFFFFFFE
00000006
00000003
00000007
00000004
FFFFFFF9
00000004
FFFFFFFE
00000003
00000006
00000004
FFFFFFF8
00000006
00000000
00000002
00000005
FFFFFFFF
FFFFFFFB
FFFFFFF4
FFFFFFF2
00000002
FFFFFFF1
00000007
00000002
00000002
00000001
FFFFFFFC
FFFFFFFF
00000004
00000002
00000003
00000005
0000000F
00000005
FFFFFFFB
00000003
00000000
00000005
FFFFFFFD
00000005
0000000B
00000004
00000006
FFFFFFF7
00000001
0000000F
00000005
FFFFFFFF
00000001
FFFFFFFF
FFFFFFFB
00000003
00000005
00000003
FFFFFFFE
00000009
FFFFFFFE
00000002
FFFFFFFE
FFFFFFFB
00000005
00000002
FFFFFFF9
FFFFFFFE
00000007
FFFFFFF9
00000001
00000001
00000004
00000004
FFFFFFFD
00000004
FFFFFFF9
FFFFFFFE
00000007
00000014
FFFFFFFE
00000003
FFFFFFFD
00000003
00000004
FFFFFFFF
00000000
00000008
FFFFFFFF
FFFFFFFD
00000001
00000006
00000004
00000002
FFFFFFFF
FFFFFFFB
FFFFFFFF
00000002
00000003
00000005
00000003
FFFFFFFC
FFFFFFFC
FFFFFFFD
00000006
00000004
FFFFFFFD
00000006
00000000
00000007
FFFFFFFE
00000006
FFFFFFFF
00000004
FFFFFFFF
FFFFFFFF
FFFFFFFC
FFFFFFEB
FFFFFFFB
FFFFFFFC
FFFFFFFB
00000003
00000006
00000000
00000001
00000003
00000009
FFFFFFFB
FFFFFFFD
00000009
00000001
FFFFFFFD
00000003
FFFFFFE7
00000000
00000007
FFFFFFFF
00000008
FFFFFFEE
00000002
FFFFFFFC
00000001
00000000
FFFFFFFD
00000004
00000004
00000007
00000001
00000000
00000007
00000000
0000000D
00000008
00000002
00000004
00000003
0000000F
00000002
FFFFFFF5
00000004
FFFFFFFC
00000003
00000000
FFFFFFFA
FFFFFFF5
00000003
00000007
00000009
00000002
00000002
00000008
00000000
FFFFFFF0
00000000
FFFFFFF1
00000005
00000001
FFFFFFF8
FFFFFFFC
00000000
00000006
FFFFFFFE
00000007
00000008
00000000
00000003
FFFFFFFE
FFFFFFEC
00000003
00000006
00000004
FFFFFFFF
00000004
FFFFFFFF
FFFFFFF3
00000000
FFFFFFFE
00000006
FFFFFFF8
FFFFFFF8
00000004
FFFFFFFE
00000004
00000004
00000006
00000001
00000000
FFFFFFFD
FFFFFFFB
FFFFFFFD
FFFFFFFB
00000001
FFFFFFFC
00000003
FFFFFFFE
FFFFFFFE
FFFFFFFD
FFFFFFFD
FFFFFFFF
FFFFFFFC
FFFFFFFA
FFFFFFFF
00000003
FFFFFFFA
00000002
FFFFFFFB
00000000
FFFFFFFE
FFFFFFFF
FFFFFFFD
00000002
FFFFFFF9
FFFFFFFF
00000003
FFFFFFFB
FFFFFFFC
FFFFFFFC
00000003
00000000
00000000
FFFFFFFF
FFFFFFFC
00000003
00000003
00000003
00000002
00000000
00000002
FFFFFFFB
00000000
00000000
FFFFFFFA
00000003
00000000
00000005
FFFFFFFE
FFFFFFFE
FFFFFFFF
00000004
00000000
FFFFFFFF
FFFFFFFE
FFFFFFFE
FFFFFFFE
00000000
00000001
00000003
FFFFFFFA
FFFFFFFE
FFFFFFFE
FFFFFFFE
FFFFFFFA
00000001
FFFFFFFE
FFFFFFFD
FFFFFFFD
00000000
00000004
FFFFFFFC
FFFFFFFF
FFFFFFFF
FFFFFFFC
FFFFFFFD
FFFFFFFE
00000001
FFFFFFFA
FFFFFFFA
FFFFFFFA
00000002
FFFFFFFC
FFFFFFFD
00000002
FFFFFFFA
FFFFFFFC
FFFFFFFF
00000003
00000004
FFFFFFFC
00000003
FFFFFFFD
FFFFFFFE
00000002
FFFFFFFC
FFFFFFFD
FFFFFFFC
00000000
FFFFFFFE
00000005
00000002
FFFFFFFC
00000001
FFFFFFFC
FFFFFFFE
FFFFFFFD
FFFFFFFE
FFFFFFFE
FFFFFFFC
FFFFFFFD
FFFFFFFE
FFFFFFFD
FFFFFFFE
FFFFFFFD
FFFFFFFF
FFFFFFFD
00000003
FFFFFFFE
00000000
FFFFFFFD
FFFFFFFB
FFFFFFFF
FFFFFFFB
FFFFFFFE
FFFFFFF9
00000000
FFFFFFFA
0000000E
FFFFFFF9
FFFFFFFF
00000002
00000002
00000008
00000002
FFFFFFFD
00000004
00000002
FFFFFFF4
FFFFFFFD
FFFFFFFE
00000006
00000005
00000001
FFFFFFFC
00000008
FFFFFFFD
00000006
00000001
FFFFFFFB
00000002
00000004
FFFFFFFF
00000002
00000005
0000000A
00000001
00000000
FFFFFFF9
00000002
00000007
FFFFFFFF
00000005
FFFFFFFC
FFFFFFF9
FFFFFFFE
FFFFFFFB
0000000C
00000002
FFFFFFFD
00000000
0000000A
00000008
FFFFFFFC
00000006
0000000E
00000004
FFFFFFF7
00000008
FFFFFFFE
00000003
00000001
FFFFFFF1
FFFFFFFB
00000004
FFFFFFFE
FFFFFFFD
FFFFFFF0
FFFFFFFE
FFFFFFF3
FFFFFFF9
FFFFFFF8
FFFFFFF9
FFFFFFFB
00000004
00000004
00000000
00000001
FFFFFFFF
00000009
00000009
FFFFFFFE
FFFFFFFA
FFFFFFFE
FFFFFFFB
FFFFFFFD
00000001
FFFFFFF8
00000001
FFFFFFFC
FFFFFFFE
00000007
00000003
FFFFFFFB
00000002
00000009
00000004
FFFFFFFC
FFFFFFFE
FFFFFFF3
FFFFFFFF
00000002
00000007
FFFFFFF6
00000000
00000001
FFFFFFF9
FFFFFFFE
FFFFFFFD
0000000A
00000003
00000001
00000002
FFFFFFFB
00000007
00000004
00000002
00000003
FFFFFFF6
FFFFFFFE
00000005
00000004
FFFFFFFC
FFFFFFF7
FFFFFFFE
00000000
00000007
00000004
FFFFFFFB
0000000B
FFFFFFFF
FFFFFFFA
FFFFFFFB
00000014
00000000
00000013
00000009
00000006
00000006
00000004
00000003
FFFFFFFA
FFFFFFFD
00000005
00000001
00000001
FFFFFFFF
00000007
00000000
00000004
00000003
00000003
00000003
00000006
FFFFFFFF
00000000
0000000D
FFFFFFFD
00000006
FFFFFFF8
00000005
00000000
00000005
FFFFFFFE
FFFFFFFD
FFFFFFF7
00000002
00000001
00000003
FFFFFFFF
00000001
00000003
00000006
FFFFFFFC
FFFFFFF8
00000006
00000001
FFFFFFFF
FFFFFFFF
FFFFFFF2
FFFFFFF3
FFFFFFFA
00000002
FFFFFFF2
FFFFFFF9
00000003
00000002
FFFFFFFE
00000007
00000003
00000003
FFFFFFFF
00000000
00000001
00000000
FFFFFFFC
FFFFFFFD
00000006
00000000
00000004
00000004
00000009
00000007
00000000
00000007
00000006
FFFFFFFF
00000007
FFFFFFFF
FFFFFFFF
0000000D
00000006
00000004
0000000A
FFFFFFFA
FFFFFFFE
00000006
FFFFFFFA
00000009
FFFFFFFD
00000005
0000000B
00000007
00000003
FFFFFFFE
FFFFFFFC
FFFFFFFE
00000002
00000005
FFFFFFF9
FFFFFFF7
00000004
FFFFFFFB
FFFFFFFD
00000005
FFFFFFFE
FFFFFFFF
FFFFFFFC
FFFFFFFC
00000003
FFFFFFFF
00000003
0000000D
FFFFFFFF
FFFFFFF1
FFFFFFFF
00000003
FFFFFFFE
00000003
00000003
00000000
FFFFFFF8
FFFFFFF8
0000000B
00000002
00000006
00000005
00000004
FFFFFFFF
00000003
00000008
FFFFFFF2
00000004
00000007
00000011
00000002
00000007
FFFFFFFF
00000003
FFFFFFFD
FFFFFFFF
00000000
00000005
FFFFFFFD
00000004
00000006
00000001
FFFFFFFD
00000007
00000008
00000009
00000001
FFFFFFFF
00000002
FFFFFFFE
00000004
FFFFFFFB
00000001
FFFFFFF7
FFFFFFFA
00000006
00000000
FFFFFFFE
FFFFFFFA
00000006
00000008
00000003
FFFFFFFE
FFFFFFFC
00000009
00000001
00000002
FFFFFFF3
FFFFFFFA
FFFFFFF8
FFFFFFFD
00000004
FFFFFFF0
FFFFFFF9
FFFFFFF7
00000003
FFFFFFF8
FFFFFFF9
FFFFFFFE
00000000
00000003
00000003
00000006
FFFFFFEE
FFFFFFFE
00000005
00000005
00000008
FFFFFFFD
00000004
FFFFFFFA
FFFFFFFE
FFFFFFF9
00000008
00000001
00000006
00000001
FFFFFFFA
00000005
00000006
FFFFFFFF
00000002
00000008
0000000C
00000007
FFFFFFFD
0000000B
FFFFFFFC
00000004
00000008
00000002
00000002
00000000
00000000
FFFFFFF9
00000008
00000003
00000003
00000002
00000003
FFFFFFFF
00000003
FFFFFFF2
FFFFFFFB
FFFFFFF2
FFFFFFFF
00000006
FFFFFFF9
FFFFFFFA
FFFFFFFB
00000000
FFFFFFF9
00000000
FFFFFFFE
00000001
0000000A
00000005
FFFFFFEA
FFFFFFFF
00000003
00000006
FFFFFFF7
FFFFFFFD
00000002
00000002
FFFFFFFC
00000003
00000007
FFFFFFFE
FFFFFFFA
00000004
00000004
FFFFFFFE
00000002
00000004
00000003
00000005
00000000
00000001
00000000
FFFFFFFD
00000005
FFFFFFFF
00000003
00000006
FFFFFFFE
FFFFFFFF
00000009
00000006
00000005
00000000
0000000C
00000004
00000002
FFFFFFFA
00000004
00000001
00000002
00000007
FFFFFFFA
FFFFFFFC
FFFFFFF5
00000001
00000004
FFFFFFFC
00000004
FFFFFFF6
00000003
00000002
FFFFFFFC
00000002
00000002
00000003
FFFFFFFF
00000001
00000001
FFFFFFF4
FFFFFFFC
00000001
FFFFFFFE
FFFFFFF2
FFFFFFFA
FFFFFFFD
00000006
FFFFFFF3
00000000
00000005
00000007
00000004
FFFFFFFF
FFFFFFFF
FFFFFFF9
00000002
FFFFFFFC
00000003
00000005
0000000D
00000004
FFFFFFFF
FFFFFFFF
FFFFFFF7
00000008
0000000A
00000006
00000008
00000002
00000006
00000006
FFFFFFF5
0000000F
FFFFFFFE
00000009
00000006
00000008
FFFFFFFE
00000002
FFFFFFFF
FFFFFFFF
00000000
00000002
FFFFFFF6
00000001
FFFFFFF6
00000004
00000001
00000000
00000001
00000003
00000004
00000001
FFFFFFFF
00000004
00000003
0000000B
00000001
FFFFFFFE
00000007
FFFFFFFC
00000002
00000002
00000004
00000009
00000001
FFFFFFFF
FFFFFFFB
FFFFFFFB
00000008
00000000
00000002
FFFFFFFB
00000001
00000000
00000006
FFFFFFFF
00000002
00000006
00000006
00000002
00000001
00000006
00000003
00000002
FFFFFFFE
00000009
00000004
00000015
0000000B
FFFFFFFE
FFFFFFFF
00000004
00000007
00000003
FFFFFFF7
00000006
00000003
FFFFFFFF
FFFFFFFE
00000000
FFFFFFFB
00000005
FFFFFFFF
00000002
0000000A
00000003
00000003
FFFFFFFF
00000005
FFFFFFFA
00000004
FFFFFFF6
FFFFFFFC
00000003
FFFFFFF8
00000003
FFFFFFFD
00000004
FFFFFFFE
FFFFFFFE
FFFFFFF8
00000001
00000007
FFFFFFFB
00000001
FFFFFFF9
FFFFFFFE
00000001
FFFFFFFD
00000002
FFFFFFF8
00000002
FFFFFFEF
00000002
FFFFFFF8
FFFFFFFC
FFFFFFFD
00000004
00000004
FFFFFFFE
FFFFFFFE
FFFFFFE8
00000001
00000000
00000004
00000007
FFFFFFFB
00000002
FFFFFFFB
FFFFFFFF
FFFFFFFF
0000000B
FFFFFFFC
00000004
FFFFFFFA
FFFFFFFA
00000005
00000000
FFFFFFFA
00000006
00000007
00000007
FFFFFFFC
FFFFFFFC
00000010
00000003
FFFFFFFD
00000003
00000003
00000005
FFFFFFFA
00000006
FFFFFFFA
00000002
00000000
00000003
00000009
FFFFFFFF
FFFFFFFE
FFFFFFFE
FFFFFFE3
00000004
FFFFFFF9
00000002
00000002
FFFFFFF9
00000003
FFFFFFFD
00000000
FFFFFFFB
00000001
FFFFFFFD
00000000
0000000A
FFFFFFFC
FFFFFFEC
00000001
FFFFFFFE
00000004
FFFFFFF9
00000005
FFFFFFFF
00000003
00000004
00000007
00000005
FFFFFFF9
FFFFFFF8
00000009
00000003
00000006
FFFFFFFC
00000002
FFFFFFFF
00000007
FFFFFFFE
00000000
00000001
FFFFFFFC
FFFFFFFD
FFFFFFF7
00000002
00000008
00000007
FFFFFFFE
FFFFFFF9
00000006
00000002
FFFFFFF9
FFFFFFFF
00000005
FFFFFFFC
00000004
FFFFFFFC
00000003
00000008
00000004
FFFFFFFC
00000005
00000008
00000004
FFFFFFFE
FFFFFFFF
00000006
FFFFFFF8
00000002
00000007
00000006
0000000B
00000002
00000004
0000000A
FFFFFFFD
FFFFFFF7
FFFFFFFE
FFFFFFFF
00000007
FFFFFFFB
FFFFFFFB
FFFFFFFB
00000004
FFFFFFFD
00000009
FFFFFFFC
00000002
FFFFFFFE
00000000
0000000A
00000008
FFFFFFFA
FFFFFFFF
00000008
00000001
00000005
FFFFFFF9
00000004
FFFFFFFD
0000000E
00000002
FFFFFFFB
00000009
FFFFFFFF
00000001
00000006
00000006
00000002
FFFFFFFC
FFFFFFF5
00000008
FFFFFFF2
00000007
00000006
0000000E
00000004
FFFFFFFC
00000008
FFFFFFFA
00000004
00000001
FFFFFFFE
00000007
00000006
FFFFFFF9
FFFFFFFB
FFFFFFF8
FFFFFFFD
00000005
00000007
FFFFFFFF
FFFFFFFE
FFFFFFF9
FFFFFFF2
00000000
00000005
FFFFFFF5
00000000
00000005
00000005
00000002
00000000
0000000A
00000005
00000004
FFFFFFF9
00000000
00000008
00000005
00000001
00000009
00000000
FFFFFFF5
00000003
00000006
00000003
00000006
00000000
00000002
00000005
FFFFFFFF
00000008
FFFFFFF5
00000007
00000008
00000005
FFFFFFF8
00000003
00000002
FFFFFFFE
FFFFFFF6
FFFFFFFE
00000004
FFFFFFFE
00000004
00000006
00000004
FFFFFFFF
00000008
FFFFFFF9
00000004
0000000A
FFFFFFF9
FFFFFFFB
FFFFFFFD
00000007
00000001
00000001
FFFFFFF9
0000000C
00000003
FFFFFFFE
00000005
FFFFFFFD
00000004
00000002
FFFFFFFB
00000000
00000003
FFFFFFF8
00000003
00000004
00000004
FFFFFFFE
00000011
FFFFFFFE
FFFFFFF9
00000000
FFFFFFFB
00000000
0000000F
00000003
00000007
FFFFFFF6
FFFFFFFF
FFFFFFFB
00000001
00000000
FFFFFFFF
0000000F
00000001
FFFFFFFF
FFFFFFFE
00000001
FFFFFFFC
00000001
0000000C
00000009
00000009
0000000B
00000005
FFFFFFFB
FFFFFFFB
0000000A
00000004
00000005
00000012
00000008
00000005
00000007
FFFFFFFE
FFFFFFFF
FFFFFFFB
FFFFFFFE
00000007
00000005
FFFFFFFC
00000008
0000000A
00000000
0000000E
FFFFFFF8
FFFFFFFE
00000004
FFFFFFFE
FFFFFFFC
00000006
00000008
00000008
FFFFFFF5
00000008
FFFFFFFE
FFFFFFF9
FFFFFFF9
00000003
FFFFFFFE
FFFFFFFD
FFFFFFFD
FFFFFFFB
FFFFFFFF
FFFFFFFC
00000007
00000007
00000001
00000008
00000005
FFFFFFFC
00000013
FFFFFFFC
FFFFFFFD
00000004
00000000
00000005
00000007
0000000C
00000002
00000008
FFFFFFFB
FFFFFFFD
00000009
00000006
FFFFFFFF
00000005
00000013
00000003
00000002
00000001
00000000
00000005
FFFFFFFA
FFFFFFF2
00000004
FFFFFFFD
00000005
00000003
FFFFFFFF
FFFFFFF8
00000006
00000003
00000001
0000000C
00000001
00000002
00000002
FFFFFFFB
FFFFFFFD
00000009
FFFFFFF6
00000000
00000000
00000002
00000005
FFFFFFFE
FFFFFFFC
FFFFFFFD
00000003
FFFFFFF9
00000006
FFFFFFFE
FFFFFFFD
00000004
00000013
00000004
00000003
00000003
FFFFFFFE
00000007
00000002
FFFFFFF9
00000006
0000000E
00000006
00000009
00000002
00000002
FFFFFFFC
00000005
FFFFFFF1
00000008
FFFFFFFE
FFFFFFFE
00000002
FFFFFFF8
FFFFFFFF
FFFFFFF6
00000003
FFFFFFFA
0000000A
FFFFFFFB
00000000
00000002
00000005
00000002
00000003
FFFFFFEF
00000003
00000002
0000001D
00000002
FFFFFFF7
00000006
00000001
0000000D
FFFFFFFE
FFFFFFFC
FFFFFFFA
FFFFFFFF
FFFFFFFD
0000000B
00000006
FFFFFFFF
FFFFFFFE
00000000
FFFFFFFD
FFFFFFF8
00000003
FFFFFFF5
FFFFFFFF
FFFFFFEE
FFFFFFFC
00000003
FFFFFFFD
FFFFFFFA
00000001
00000005
FFFFFFFB
00000001
00000001
FFFFFFFC
00000007
0000000B
FFFFFFF7
FFFFFFFA
FFFFFFFA
FFFFFFFE
FFFFFFEB
00000005
00000002
00000004
00000008
00000006
00000007
FFFFFFFA
FFFFFFF7
00000006
00000000
00000007
FFFFFFFE
00000003
FFFFFFFB
00000002
00000003
00000009
00000002
FFFFFFFC
FFFFFFFC
00000000
0000000D
00000007
00000005
00000000
FFFFFFFC
00000000
00000004
FFFFFFFB
00000006
00000006
FFFFFFFA
FFFFFFF0
00000005
FFFFFFFF
FFFFFFFC
00000005
FFFFFFF6
0000000C
FFFFFFFB
FFFFFFFE
00000004
FFFFFFFF
00000002
FFFFFFF6
00000005
00000002
00000007
00000006
FFFFFFFE
00000004
00000005
FFFFFFFD
FFFFFFEC
FFFFFFE8
00000000
00000006
FFFFFFFC
FFFFFFFD
0000000C
00000002
00000001
FFFFFFF5
FFFFFFFE
FFFFFFF9
00000002
FFFFFFFD
FFFFFFFD
FFFFFFFA
FFFFFFF5
FFFFFFFD
FFFFFFFC
00000004
FFFFFFF9
00000009
00000001
FFFFFFFC
00000001
FFFFFFF9
00000006
FFFFFFFB
00000004
00000005
00000001
FFFFFFFC
0000000A
FFFFFFFD
00000003
00000002
FFFFFFEF
00000003
00000006
FFFFFFFA
00000005
FFFFFFFD
00000003
00000007
FFFFFFFB
FFFFFFF6
00000001
FFFFFFF1
00000008
00000003
00000005
00000006
00000002
00000000
FFFFFFFD
FFFFFFFD
00000005
00000002
00000003
00000005
00000004
0000000E
00000000
00000002
00000006
00000002
00000008
00000003
FFFFFFFF
00000001
FFFFFFFE
00000005
00000004
00000007
FFFFFFF4
00000005
FFFFFFFF
00000008
00000005
FFFFFFFF
00000005
FFFFFFFB
00000003
FFFFFFFA
00000004
00000006
FFFFFFFA
00000002
00000007
FFFFFFF5
FFFFFFF2
FFFFFFFC
FFFFFFF5
00000001
00000003
00000009
00000006
00000002
FFFFFFFE
00000001
FFFFFFFE
00000003
00000003
00000004
FFFFFFFE
00000005
00000000
FFFFFFFD
00000007
00000007
FFFFFFFD
00000000
00000010
FFFFFFFA
00000002
00000009
00000008
00000010
00000008
FFFFFFFB
FFFFFFF7
FFFFFFFF
FFFFFFFA
FFFFFFFC
00000005
00000003
00000003
FFFFFFFD
00000011
00000000
00000005
00000004
00000001
00000004
00000003
FFFFFFFA
0000000A
FFFFFFEF
FFFFFFFD
FFFFFFF9
00000004
FFFFFFFC
00000003
FFFFFFF9
0000001F
FFFFFFFD
00000004
00000009
00000006
00000011
00000004
00000001
FFFFFFF4
FFFFFFFC
00000004
FFFFFFFE
0000000B
0000000A
FFFFFFFA
FFFFFFFE
FFFFFFFC
FFFFFFFF
FFFFFFF9
FFFFFFFA
FFFFFFFC
00000002
00000006
FFFFFFF8
FFFFFFFD
FFFFFFF4
00000002
00000009
00000005
FFFFFFF9
00000008
FFFFFFFF
00000002
00000000
00000003
00000009
FFFFFFFC
FFFFFFFF
FFFFFFFC
00000005
00000001
0000000C
0000000B
00000002
00000006
00000011
FFFFFFFC
00000006
FFFFFFFE
FFFFFFFF
0000000B
FFFFFFFE
FFFFFFFA
FFFFFFFC
00000019
0000000B
00000004
00000002
00000000
0000000A
00000000
00000007
00000000
FFFFFFFD
FFFFFFFD
00000005
00000009
00000004
FFFFFFFD
FFFFFFFB
FFFFFFFA
00000003
00000000
00000003
00000009
00000000
FFFFFFFF
00000000
FFFFFFFB
00000004
FFFFFFFE
00000002
FFFFFFFC
00000000
00000009
00000002
00000000
00000009
00000009
00000005
0000000A
FFFFFFF9
00000004
00000003
00000005
00000008
FFFFFFFF
FFFFFFFB
00000006
FFFFFFFC
00000001
FFFFFFFE
00000006
FFFFFFFC
00000001
00000003
FFFFFFFB
00000004
FFFFFFFF
0000000A
00000003
FFFFFFFE
FFFFFFF7
FFFFFFFC
FFFFFFF8
00000003
00000000
FFFFFFFE
FFFFFFFC
00000007
00000002
FFFFFFF9
FFFFFFFB
FFFFFFFD
00000002
00000002
FFFFFFFE
FFFFFFFC
FFFFFFFE
FFFFFFFF
FFFFFFFB
FFFFFFFE
00000005
00000003
00000004
FFFFFFFF
FFFFFFFE
FFFFFFFC
0000000E
00000000
00000005
FFFFFFFD
FFFFFFFC
00000002
00000002
00000008
00000008
FFFFFFFF
00000007
FFFFFFFD
00000005
FFFFFFF7
00000000
FFFFFFFF
00000005
00000001
0000000B
FFFFFFFE
FFFFFFFE
FFFFFFF7
FFFFFFFB
0000000A
00000001
00000007
00000004
00000007
FFFFFFFF
FFFFFFFD
FFFFFFFF
00000004
00000005
FFFFFFF9
FFFFFFF9
00000002
FFFFFFFC
FFFFFFFA
FFFFFFFC
00000007
FFFFFFFC
00000000
00000003
FFFFFFFB
FFFFFFFB
00000006
FFFFFFFF
00000003
00000003
FFFFFFFC
FFFFFFFC
0000000A
00000001
00000006
0000000A
00000006
00000005
00000007
00000003
00000004
00000009
0000000A
00000007
FFFFFFED
FFFFFFF8
00000003
00000000
FFFFFFFE
FFFFFFFD
00000003
00000004
00000001
FFFFFFFE
00000001
00000001
00000004
00000000
00000000
00000008
FFFFFFFE
FFFFFFFD
FFFFFFE9
00000008
00000001
FFFFFFF9
00000003
FFFFFFF9
0000000A
00000003
00000005
00000004
FFFFFFFD
00000001
00000004
00000002
FFFFFFFF
00000000
00000006
00000005
FFFFFFFE
00000002
FFFFFFFD
FFFFFFF8
FFFFFFEE
00000003
00000008
FFFFFFFC
0000000B
0000000D
0000000A
FFFFFFFE
00000002
00000005
FFFFFFF6
00000000
00000004
00000005
FFFFFFF8
00000001
FFFFFFFF
FFFFFFFB
00000006
FFFFFFFA
0000000A
FFFFFFFC
FFFFFFFF
00000003
00000001
FFFFFFFA
FFFFFFF4
00000000
00000001
00000000
00000001
00000003
FFFFFFFD
FFFFFFFE
00000000
FFFFFFE8
00000001
00000005
FFFFFFF9
00000001
FFFFFFFA
FFFFFFFC
FFFFFFFF
FFFFFFFF
FFFFFFFE
00000003
FFFFFFF1
FFFFFFFC
FFFFFFFC
00000006
00000001
00000004
00000002
FFFFFFFA
0000000C
00000006
00000005
00000004
FFFFFFFF
00000000
00000008
FFFFFFFB
00000002
00000008
FFFFFFFD
00000007
0000000A
FFFFFFEF
00000004
00000007
00000001
00000005
00000000
FFFFFFFA
00000001
00000002
00000004
0000000A
FFFFFFF4
00000001
FFFFFFFC
FFFFFFFE
FFFFFFEE
00000000
00000005
FFFFFFFD
00000002
0000000C
00000003
00000006
00000008
0000000A
FFFFFFFE
FFFFFFFF
FFFFFFF7
00000004
00000003
FFFFFFFE
00000004
00000004
FFFFFFFC
00000001
FFFFFFF5
00000004
FFFFFFFC
FFFFFFFC
00000004
FFFFFFFD
00000000
00000000
00000000
FFFFFFF9
0000000D
00000001
00000006
FFFFFFFC
FFFFFFFC
00000005
00000009
00000001
FFFFFFFC
00000005
00000000
00000002
FFFFFFFB
00000001
00000004
00000003
FFFFFFF5
00000006
00000002
FFFFFFFF
00000003
0000000E
00000006
FFFFFFF9
0000000B
00000008
00000000
FFFFFFFC
FFFFFFFD
00000005
FFFFFFFE
00000000
00000000
FFFFFFFD
00000001
FFFFFFF4
0000000D
00000003
00000003
00000007
00000004
00000001
FFFFFFFE
FFFFFFFA
00000004
FFFFFFFD
FFFFFFFD
00000006
FFFFFFF7
00000001
00000004
00000014
00000003
00000003
00000007
FFFFFFFD
0000000A
00000005
FFFFFFFE
FFFFFFF8
FFFFFFFC
FFFFFFFF
0000000F
00000004
FFFFFFFB
FFFFFFFE
FFFFFFFB
00000001
FFFFFFFB
00000003
00000000
FFFFFFFE
00000006
FFFFFFFD
0000000D
00000000
00000005
00000002
00000003
00000005
FFFFFFF8
00000002
0000000A
00000004
00000008
FFFFFFF7
FFFFFFF6
00000003
00000005
FFFFFFFF
00000006
FFFFFFFF
0000000A
00000003
FFFFFFF9
FFFFFFFB
FFFFFFFE
00000004
FFFFFFF4
00000001
00000000
FFFFFFFB
FFFFFFF1
00000006
00000001
00000006
00000009
00000007
00000000
FFFFFFFD
FFFFFFFE
0000000D
00000002
FFFFFFFC
00000000
00000000
00000004
00000004
FFFFFFFE
00000004
00000008
00000001
FFFFFFF5
FFFFFFFE
00000001
FFFFFFFE
00000008
00000002
00000003
00000004
FFFFFFFD
00000000
FFFFFFFB
00000000
FFFFFFEF
00000000
00000002
00000004
FFFFFFFF
00000002
00000002
FFFFFFFF
00000001
FFFFFFEC
FFFFFFF4
00000000
FFFFFFFF
FFFFFFFD
FFFFFFF7
FFFFFFFD
00000004
FFFFFFFD
FFFFFFE9
FFFFFFF8
FFFFFFFD
00000007
00000002
00000002
00000001
FFFFFFFC
FFFFFFFE
FFFFFFFB
00000002
FFFFFFFC
0000000F
00000001
00000006
00000008
00000001
00000011
00000001
00000001
00000001
00000000
FFFFFFFE
00000002
00000008
00000005
00000006
FFFFFFF6
00000000
00000007
00000004
00000000
00000004
FFFFFFFD
00000001
00000007
FFFFFFF9
FFFFFFFE
00000001
00000002
FFFFFFFD
00000004
00000004
00000002
00000007
00000007
FFFFFFFB
FFFFFFFE
00000004
00000008
FFFFFFFF
00000000
0000000C
FFFFFFFB
FFFFFFFC
FFFFFFFD
00000001
00000003
00000005
00000000
FFFFFFFC
FFFFFFFC
00000004
00000002
00000002
FFFFFFF6
00000003
00000004
00000002
FFFFFFFD
00000005
00000003
00000003
FFFFFFFF
00000000
00000006
00000003
00000006
FFFFFFFB
00000006
00000001
00000007
00000001
00000009
FFFFFFFE
00000006
00000007
00000004
00000003
00000002
00000004
00000002
FFFFFFFF
00000003
FFFFFFFD
00000002
00000004
FFFFFFFC
FFFFFFF5
00000007
00000006
00000000
00000008
FFFFFFF7
00000003
00000001
00000006
00000001
00000000
00000006
FFFFFFFB
00000006
00000003
00000006
00000004
00000000
FFFFFFFF
00000002
00000003
FFFFFFED
FFFFFFF5
FFFFFFFE
FFFFFFFE
FFFFFFFF
00000001
00000006
00000004
00000003
FFFFFFF9
FFFFFFFB
FFFFFFF9
00000006
FFFFFFFC
FFFFFFFF
FFFFFFF7
FFFFFFFD
00000000
FFFFFFFF
00000001
FFFFFFFE
00000007
FFFFFFFF
00000004
00000002
FFFFFFFE
0000000C
FFFFFFFD
00000001
00000001
00000000
00000002
00000004
FFFFFFF4
00000007
00000008
FFFFFFF2
FFFFFFFF
00000002
FFFFFFF4
00000003
00000002
FFFFFFFE
00000002
FFFFFFFE
FFFFFFF3
FFFFFFFF
FFFFFFF7
00000003
00000005
00000005
00000002
00000001
00000006
00000003
FFFFFFF4
FFFFFFFF
00000000
0000000B
FFFFFFFE
FFFFFFFC
00000006
FFFFFFFE
00000007
FFFFFFFD
00000004
00000006
FFFFFFFC
FFFFFFFC
FFFFFFFB
FFFFFFFA
00000006
00000001
00000003
FFFFFFF6
FFFFFFFF
00000004
00000002
00000009
FFFFFFFA
0000000A
FFFFFFFC
FFFFFFFF
00000001
FFFFFFFF
00000007
FFFFFFFB
00000007
00000003
00000002
00000001
FFFFFFFC
FFFFFFFD
00000004
FFFFFFF9
FFFFFFFF
00000005
00000002
00000001
FFFFFFFC
00000006
00000000
00000002
00000001
FFFFFFFC
FFFFFFFF
00000001
FFFFFFF8
00000001
00000002
00000004
00000002
FFFFFFFB
00000001
00000006
FFFFFFFF
00000003
FFFFFFFE
FFFFFFFD
0000000A
00000006
00000002
00000003
00000006
FFFFFFFF
00000005
00000008
00000003
FFFFFFF3
0000000E
FFFFFFFE
00000003
00000001
00000006
00000007
00000004
FFFFFFFF
00000003
FFFFFFFF
FFFFFFFA
00000001
FFFFFFFF
00000000
00000003
FFFFFFFB
FFFFFFFD
FFFFFFFD
00000004
00000005
FFFFFFFC
FFFFFFFC
00000004
00000005
00000004
FFFFFFFD
00000002
FFFFFFFF
00000003
00000002
FFFFFFFE
00000001
00000013
00000002
FFFFFFFD
FFFFFFFB
00000002
00000005
00000003
00000004
00000000
00000001
00000004
00000001
00000007
FFFFFFFA
FFFFFFF9
FFFFFFFD
00000005
00000003
FFFFFFFD
00000004
00000006
FFFFFFFF
00000007
00000006
00000006
FFFFFFFC
FFFFFFFD
FFFFFFFF
FFFFFFFB
FFFFFFFB
00000001
00000006
00000001
00000004
00000006
FFFFFFFE
00000008
FFFFFFF6
00000004
00000005
00000007
00000004
FFFFFFFD
00000003
FFFFFFFF
00000001
00000001
00000001
FFFFFFFE
00000006
00000000
00000007
FFFFFFFF
00000005
0000000D
00000001
00000008
FFFFFFF4
00000001
FFFFFFFB
FFFFFFFC
FFFFFFF6
FFFFFFF6
FFFFFFF9
00000006
FFFFFFFC
FFFFFFFF
00000005
00000003
00000005
00000003
00000000
00000001
00000000
00000003
FFFFFFFA
FFFFFFFD
00000003
00000000
00000009
00000007
00000002
0000000A
FFFFFFFE
FFFFFFFE
FFFFFFFE
00000007
00000000
FFFFFFFB
FFFFFFFC
00000001
00000004
FFFFFFFD
FFFFFFFF
FFFFFFFE
0000000E
FFFFFFFF
00000002
00000002
00000002
00000002
FFFFFFFE
0000000F
00000000
FFFFFFFC
00000009
00000002
FFFFFFF9
00000000
FFFFFFFC
00000005
0000001D
00000000
00000000
FFFFFFFC
FFFFFFF7
00000007
00000004
00000009
00000003
00000008
FFFFFFFC
00000002
00000003
00000005
00000005
00000001
00000002
00000007
FFFFFFFF
00000001
00000003
FFFFFFFC
00000007
00000004
FFFFFFFC
00000004
FFFFFFFD
00000002
FFFFFFFE
00000006
FFFFFFFD
00000006
FFFFFFF4
FFFFFFFC
00000001
FFFFFFFF
00000005
FFFFFFFE
FFFFFFFB
00000001
00000001
00000012
00000003
FFFFFFFC
00000004
FFFFFFFC
FFFFFFFE
FFFFFFFC
00000002
FFFFFFFC
00000003
00000000
00000005
00000004
0000000F
00000004
FFFFFFFF
FFFFFFFC
00000007
FFFFFFFA
FFFFFFFF
00000007
00000001
FFFFFFFB
FFFFFFFC
00000001
00000007
FFFFFFFE
00000002
FFFFFFFC
FFFFFFFE
FFFFFFF1
00000002
FFFFFFFC
FFFFFFFF
FFFFFFFC
00000004
FFFFFFFD
00000000
00000000
00000001
FFFFFFFC
FFFFFFFC
00000001
00000000
FFFFFFFD
FFFFFFFE
00000003
00000004
FFFFFFFF
FFFFFFFC
FFFFFFFF
FFFFFFFB
00000000
00000001
00000001
FFFFFFFB
FFFFFFFC
FFFFFFFF
00000004
00000002
FFFFFFFE
FFFFFFFD
00000001
00000002
00000001
00000001
FFFFFFFC
00000000
FFFFFFFE
FFFFFFFE
FFFFFFFD
00000001
FFFFFFFE
FFFFFFFE
FFFFFFFE
00000004
FFFFFFFC
00000000
FFFFFFFB
FFFFFFFC
00000000
FFFFFFFF
00000000
00000003
00000002
FFFFFFFD
00000003
FFFFFFFB
00000002
00000002
00000001
00000003
00000001
00000000
FFFFFFFF
00000000
FFFFFFFF
FFFFFFFE
00000002
FFFFFFFE
FFFFFFFD
00000002
FFFFFFFB
00000003
FFFFFFFC
FFFFFFFF
FFFFFFFD
FFFFFFFD
FFFFFFFE
FFFFFFFB
FFFFFFFE
00000001
FFFFFFFB
00000001
00000002
00000003
FFFFFFFC
00000001
FFFFFFFC
00000002
00000003
FFFFFFFD
FFFFFFFD
00000004
00000002
00000001
00000000
00000002
00000000
00000000
00000002
FFFFFFFC
FFFFFFFF
00000001
FFFFFFFA
00000001
FFFFFFFF
00000001
00000001
00000002
00000002
FFFFFFFA
00000000
FFFFFFFF
FFFFFFFF
FFFFFFFB
00000001
00000004
00000003
00000004
00000003
FFFFFFFA
00000000
FFFFFFFD
FFFFFFFC
FFFFFFFD
FFFFFFFF
FFFFFFFD
FFFFFFFB
00000004
00000000
00000000
FFFFFFFA
FFFFFFFC
00000002
FFFFFFFF
00000001
FFFFFFF8
FFFFFFFF
00000000
00000001
00000009
00000001
00000005
00000002
00000006
00000006
00000000
00000005
FFFFFFFB
FFFFFFF9
00000000
00000000
00000003
FFFFFFFF
00000008
00000007
FFFFFFF9
FFFFFFFD
00000002
0000000C
FFFFFFFB
FFFFFFFD
FFFFFFFC
FFFFFFFA
00000003
FFFFFFF9
FFFFFFFC
FFFFFFFF
00000010
00000006
00000006
FFFFFFFE
00000003
FFFFFFFD
00000006
0000000A
FFFFFFFF
FFFFFFFF
0000000A
00000008
FFFFFFF9
00000000
FFFFFFFE
00000003
00000013
0000000C
FFFFFFF7
FFFFFFF9
FFFFFFFF
0000000A
00000006
FFFFFFFB
FFFFFFFF
00000000
FFFFFFFF
FFFFFFFD
00000006
00000003
00000002
00000001
FFFFFFFF
00000002
00000008
00000002
00000013
00000000
00000002
FFFFFFF3
FFFFFFF4
00000004
00000000
FFFFFFFE
00000003
00000007
FFFFFFFD
00000006
FFFFFFFB
FFFFFFFD
FFFFFFF8
FFFFFFF9
00000004
FFFFFFFC
00000007
00000011
00000001
FFFFFFFC
00000003
00000000
FFFFFFF4
00000007
00000001
00000000
00000003
FFFFFFFD
FFFFFFFA
FFFFFFF6
00000003
00000009
0000000C
00000003
FFFFFFFC
00000003
00000009
00000005
FFFFFFFC
00000006
00000003
00000002
00000005
00000005
00000000
FFFFFFFB
FFFFFFF5
FFFFFFFB
00000000
00000002
FFFFFFF8
00000003
FFFFFFFC
FFFFFFFA
FFFFFFFF
00000002
FFFFFFF9
FFFFFFFC
00000003
FFFFFFFA
FFFFFFFE
FFFFFFFC
FFFFFFF7
FFFFFFFE
00000000
00000002
00000001
00000001
FFFFFFFB
00000003
FFFFFFFC
FFFFFFF9
FFFFFFF8
00000003
00000000
FFFFFFFF
00000004
FFFFFFFE
FFFFFFFB
00000000
FFFFFFFB
FFFFFFFA
FFFFFFFC
00000001
FFFFFFFC
00000003
00000002
FFFFFFFB
FFFFFFFE
00000001
00000000
FFFFFFFD
00000003
00000005
FFFFFFFD
00000001
00000002
FFFFFFFE
00000001
FFFFFFFE
FFFFFFFD
FFFFFFFE
FFFFFFFE
00000002
00000002
00000001
FFFFFFFD
00000000
FFFFFFFB
FFFFFFFC
FFFFFFFB
FFFFFFFF
FFFFFFFC
FFFFFFFB
00000003
00000001
00000004
FFFFFFFD
FFFFFFFA
FFFFFFFF
FFFFFFF9
FFFFFFFC
00000002
00000001
FFFFFFFF
FFFFFFFB
00000003
00000003
00000000
00000001
FFFFFFFF
FFFFFFFF
FFFFFFFC
FFFFFFFC
FFFFFFFF
FFFFFFFC
00000001
FFFFFFFD
00000000
00000001
FFFFFFFC
FFFFFFFC
FFFFFFFE
FFFFFFF7
FFFFFFFE
00000001
00000004
FFFFFFFA
00000001
00000001
00000000
FFFFFFFE
00000003
00000000
00000001
FFFFFFFF
00000000
00000000
00000002
FFFFFFFC
FFFFFFF8
FFFFFFFE
FFFFFFFE
00000000
FFFFFFFB
FFFFFFFC
00000003
FFFFFFFF
00000000
FFFFFFFD
FFFFFFFE
00000002
00000002
FFFFFFFC
FFFFFFFF
FFFFFFFA
FFFFFFF6
00000002
FFFFFFFB
00000007
FFFFFFFC
FFFFFFF9
00000007
00000000
00000001
FFFFFFF9
FFFFFFF6
00000003
00000004
FFFFFFFD
FFFFFFFA
00000008
00000006
FFFFFFEE
FFFFFFFA
00000004
00000000
00000005
00000004
00000006
FFFFFFFF
FFFFFFFE
FFFFFFF3
0000000A
00000000
00000002
FFFFFFFE
00000006
00000003
FFFFFFFF
FFFFFFFD
00000007
00000009
00000006
00000009
FFFFFFFA
00000009
00000003
FFFFFFF9
00000003
00000004
00000004
FFFFFFFC
00000000
00000005
0000000B
00000004
00000011
00000005
00000001
00000001
00000004
00000007
00000009
FFFFFFF4
00000006
0000000C
FFFFFFFC
0000000C
FFFFFFF5
00000008
FFFFFFF9
00000007
00000002
FFFFFFF6
00000002
00000003
00000005
00000002
00000003
FFFFFFFC
FFFFFFF5
FFFFFFFB
00000009
FFFFFFFC
00000004
00000003
FFFFFFFE
FFFFFFFD
00000003
00000007
FFFFFFFC
00000001
00000002
FFFFFFFA
00000008
00000002
FFFFFFF9
00000005
FFFFFFF8
00000001
00000003
00000002
00000001
00000006
FFFFFFF3
FFFFFFF3
00000005
FFFFFFF7
FFFFFFF6
00000001
00000009
00000007
FFFFFFFD
FFFFFFFF
00000002
0000000C
00000009
FFFFFFF8
00000007
00000001
FFFFFFFE
FFFFFFF6
00000005
FFFFFFFF
FFFFFFF9
00000003
00000008
00000000
00000007
FFFFFFFA
00000001
FFFFFFFD
00000000
00000002
FFFFFFFE
00000006
0000000D
FFFFFFFB
FFFFFFFD
FFFFFFFE
00000003
FFFFFFFD
00000002
00000000
00000002
00000001
00000004
00000005
00000003
00000003
00000004
00000009
FFFFFFFD
00000000
00000004
00000001
00000005
00000007
00000006
00000000
FFFFFFFB
FFFFFFFA
00000006
00000001
FFFFFFFC
00000005
FFFFFFFD
00000005
FFFFFFFD
00000000
00000002
00000000
00000004
00000006
00000000
00000002
FFFFFFFB
FFFFFFFC
00000002
00000002
FFFFFFF9
FFFFFFF7
00000002
FFFFFFFE
FFFFFFF9
00000002
00000002
00000001
00000004
00000004
FFFFFFFD
00000000
00000003
00000006
00000003
00000004
FFFFFFFD
00000003
00000004
00000001
FFFFFFFF
FFFFFFF3
0000000C
00000002
00000003
00000002
00000004
00000005
FFFFFFF9
00000008
FFFFFFFE
FFFFFFFC
00000005
00000008
00000008
FFFFFFFD
FFFFFFF3
00000007
FFFFFFFB
FFFFFFFD
FFFFFFFC
FFFFFFFF
FFFFFFF1
00000001
FFFFFFF8
00000001
00000006
00000002
FFFFFFFE
FFFFFFF5
0000000E
00000002
FFFFFFFC
FFFFFFF8
0000000B
00000007
FFFFFFF9
00000001
00000003
FFFFFFFE
00000009
00000004
00000004
FFFFFFFC
FFFFFFF4
00000001
00000001
00000004
00000001
00000003
00000004
FFFFFFFE
FFFFFFFA
FFFFFFFD
00000001
FFFFFFFB
FFFFFFFD
00000005
FFFFFFFB
00000006
00000005
00000002
FFFFFFF7
00000003
00000002
00000005
FFFFFFFF
FFFFFFF8
FFFFFFFD
FFFFFFFF
FFFFFFFE
00000008
00000004
FFFFFFFA
FFFFFFFF
00000001
FFFFFFFB
FFFFFFFE
0000000C
00000007
FFFFFFF8
FFFFFFF9
FFFFFFF8
00000004
00000003
FFFFFFFE
00000000
00000008
FFFFFFFA
00000002
FFFFFFFE
00000004
00000003
00000005
00000006
00000008
FFFFFFF9
FFFFFFF9
00000003
FFFFFFFA
00000003
FFFFFFFF
00000004
00000000
00000005
00000007
FFFFFFFD
00000000
00000007
00000006
FFFFFFFC
FFFFFFFD
FFFFFFFC
FFFFFFFE
FFFFFFFA
00000004
00000000
FFFFFFFB
00000001
00000007
FFFFFFF3
00000001
00000006
FFFFFFFD
FFFFFFFC
FFFFFFFE
00000001
00000006
00000006
00000001
00000006
00000000
00000002
00000004
FFFFFFFC
00000006
00000014
00000004
00000000
FFFFFFFD
00000004
00000002
00000005
00000006
FFFFFFF5
00000001
00000000
FFFFFFFE
FFFFFFFF
00000001
FFFFFFF3
FFFFFFF7
00000002
00000003
00000007
FFFFFFFC
00000001
FFFFFFF8
00000008
00000004
00000006
00000002
00000002
00000002
00000005
00000000
FFFFFFFE
00000003
00000007
00000008
FFFFFFFE
FFFFFFFC
FFFFFFFF
00000005
FFFFFFFA
00000005
00000007
0000000E
00000000
FFFFFFFD
FFFFFFFA
FFFFFFFA
FFFFFFF7
FFFFFFFC
FFFFFFFA
00000007
FFFFFFF8
00000003
00000002
00000001
00000002
00000001
FFFFFFFD
00000001
00000005
00000006
00000004
FFFFFFFF
00000002
00000005
FFFFFFFA
00000000
00000003
FFFFFFFE
FFFFFFFA
FFFFFFF8
FFFFFFF9
FFFFFFFD
00000004
00000004
0000000A
FFFFFFFF
FFFFFFFE
00000007
FFFFFFFE
FFFFFFFE
00000004
FFFFFFFB
FFFFFFF5
FFFFFFF7
00000000
FFFFFFFF
00000003
00000006
00000007
00000006
FFFFFFFF
00000001
0000000A
FFFFFFFD
00000002
00000000
0000000E
00000006
00000007
FFFFFFFC
00000003
00000001
FFFFFFE9
FFFFFFF8
00000005
00000000
00000002
FFFFFFFF
FFFFFFFD
00000001
00000005
FFFFFFF1
FFFFFFFC
FFFFFFFF
FFFFFFFF
0000000B
FFFFFFF0
FFFFFFFD
00000002
FFFFFFFA
00000005
00000004
FFFFFFFA
FFFFFFF7
FFFFFFF8
FFFFFFF9
00000001
00000000
FFFFFFFE
FFFFFFF9
00000006
00000006
00000003
FFFFFFF2
0000000F
FFFFFFFF
00000008
FFFFFFFF
FFFFFFFF
00000003
00000005
FFFFFFFB
0000000D
00000007
FFFFFFFC
00000001
00000007
00000004
FFFFFFFC
00000001
FFFFFFEE
00000002
00000002
FFFFFFF9
00000001
00000001
00000001
FFFFFFFE
FFFFFFFA
FFFFFFF6
00000004
FFFFFFFB
00000000
00000003
00000002
FFFFFFF4
FFFFFFF0
FFFFFFFF
00000004
00000006
FFFFFFFA
FFFFFFFF
00000003
FFFFFFFB
00000006
FFFFFFFC
00000001
FFFFFFFC
00000005
00000004
00000004
00000003
00000009
00000001
FFFFFFFE
FFFFFFFF
00000003
00000006
FFFFFFFE
00000002
00000006
00000006
00000007
00000004
00000001
FFFFFFFF
FFFFFFFD
00000002
FFFFFFF5
FFFFFFFF
00000002
FFFFFFFE
FFFFFFFB
00000002
00000000
FFFFFFFE
00000005
FFFFFFFE
00000011
00000001
00000008
00000001
FFFFFFFC
00000006
00000001
00000002
00000004
00000000
00000005
00000003
FFFFFFFF
00000004
FFFFFFFD
FFFFFFF7
FFFFFFEB
00000008
00000000
00000004
00000002
00000008
00000006
00000006
00000002
0000000B
FFFFFFFB
00000001
00000002
00000001
FFFFFFFD
FFFFFFF9
FFFFFFFE
00000002
00000000
FFFFFFFA
00000008
FFFFFFFC
FFFFFFFC
00000007
FFFFFFFE
FFFFFFFF
FFFFFFFB
FFFFFFFD
00000002
00000006
FFFFFFFF
00000005
FFFFFFF0
FFFFFFFD
00000005
FFFFFFF8
00000005
00000001
FFFFFFFF
00000005
00000006
FFFFFFFD
00000004
FFFFFFFE
FFFFFFFF
FFFFFFFF
00000008
00000004
FFFFFFFC
00000007
FFFFFFFE
FFFFFFFF
FFFFFFFF
00000001
00000003
FFFFFFFF
FFFFFFFA
00000006
00000004
00000003
0000000B
00000001
00000008
00000006
FFFFFFFC
00000003
0000000A
00000000
00000003
FFFFFFFE
00000002
00000002
00000006
FFFFFFF8
00000001
FFFFFFFC
00000009
0000000B
FFFFFFFC
00000001
FFFFFFFA
FFFFFFFF
FFFFFFFD
FFFFFFFD
00000006
FFFFFFFA
FFFFFFFD
00000004
00000000
00000007
00000007
00000002
00000002
00000006
FFFFFFFC
00000004
FFFFFFF9
FFFFFFFE
FFFFFFFC
00000008
FFFFFFFC
FFFFFFFD
0000000A
00000007
FFFFFFFB
FFFFFFEE
FFFFFFFE
00000008
00000004
00000007
00000003
FFFFFFFB
FFFFFFFE
FFFFFFF7
00000003
00000004
FFFFFFFE
00000004
FFFFFFFC
00000003
FFFFFFF7
00000000
00000000
00000004
FFFFFFF6
FFFFFFFF
FFFFFFFD
0000000A
FFFFFFFA
00000003
FFFFFFF9
FFFFFFFE
00000007
00000003
00000002
00000006
00000002
00000007
00000005
FFFFFFFE
00000004
FFFFFFFD
FFFFFFF9
FFFFFFF2
FFFFFFF6
00000008
00000006
FFFFFFF1
00000000
00000001
00000005
00000002
00000007
FFFFFFF7
00000002
00000004
00000003
00000009
FFFFFFFF
00000003
00000001
0000000A
00000003
00000006
00000000
00000002
00000001
00000005
FFFFFFF3
FFFFFFFC
00000002
FFFFFFF9
00000000
FFFFFFFF
FFFFFFEE
00000001
FFFFFFFF
00000000
FFFFFFFD
FFFFFFFD
FFFFFFF9
FFFFFFEF
0000000A
00000005
00000002
00000004
00000007
00000008
00000008
FFFFFFFE
0000000A
00000004
00000008
00000007
00000002
FFFFFFFD
FFFFFFF9
0000000E
FFFFFFFC
00000006
00000003
00000003
0000000B
FFFFFFFC
FFFFFFF8
00000001
FFFFFFE8
00000001
FFFFFFF6
FFFFFFFC
FFFFFFF4
FFFFFFFC
00000006
FFFFFFF7
FFFFFFF7
00000002
0000000D
00000010
0000000E
00000006
00000002
00000009
FFFFFFFF
00000005
FFFFFFFB
00000002
00000000
00000002
00000007
FFFFFFFF
00000009
00000003
FFFFFFFA
FFFFFFFB
0000000B
00000002
00000008
0000000A
00000005
00000009
00000004
FFFFFFF2
FFFFFFFF
00000005
FFFFFFFE
00000008
FFFFFFF5
00000006
00000006
00000006
00000002
00000000
FFFFFFFD
FFFFFFFF
00000005
FFFFFFF6
FFFFFFFD
00000002
00000000
FFFFFFFD
FFFFFFFC
FFFFFFFE
FFFFFFF2
FFFFFFFF
FFFFFFFF
FFFFFFFE
00000004
00000004
FFFFFFFE
00000006
00000002
FFFFFFF2
FFFFFFF9
0000000B
00000005
00000008
FFFFFFF4
00000008
00000004
00000002
00000001
00000004
00000006
00000005
FFFFFFFF
00000008
00000001
00000003
FFFFFFFD
00000000
00000008
00000000
FFFFFFFF
00000000
00000014
00000005
FFFFFFF5
00000004
00000000
00000001
FFFFFFFC
00000000
FFFFFFF5
00000005
FFFFFFFF
00000006
FFFFFFFF
00000002
00000004
FFFFFFFB
FFFFFFF3
FFFFFFFA
FFFFFFFE
FFFFFFFC
00000003
00000008
00000002
00000003
00000004
00000000
00000005
00000009
00000004
00000003
FFFFFFFC
FFFFFFF6
FFFFFFFB
00000005
00000005
FFFFFFFC
0000000A
00000000
FFFFFFF6
FFFFFFFA
FFFFFFFE
00000003
FFFFFFF8
FFFFFFFE
FFFFFFFF
00000007
00000009
FFFFFFFE
FFFFFFF6
00000001
00000000
FFFFFFF6
00000008
00000005
00000000
00000006
00000003
00000005
00000005
00000002
FFFFFFFD
FFFFFFF9
00000004
00000003
FFFFFFFF
FFFFFFF7
FFFFFFFF
00000009
00000001
00000005
00000009
00000001
FFFFFFFF
00000008
00000001
0000000E
00000000
00000000
00000006
00000002
FFFFFFFD
FFFFFFF7
00000006
00000004
FFFFFFFB
00000001
0000000A
00000006
FFFFFFFE
FFFFFFF9
0000000B
00000004
00000007
00000005
FFFFFFFB
FFFFFFFF
FFFFFFFC
FFFFFFFD
FFFFFFFA
FFFFFFFC
00000004
00000006
00000002
00000004
00000001
00000009
FFFFFFFD
00000000
00000002
0000000A
00000001
FFFFFFFB
FFFFFFFA
FFFFFFFE
0000000B
0000000D
FFFFFFFB
00000002
FFFFFFFF
00000000
00000007
FFFFFFF8
00000001
FFFFFFF3
00000001
FFFFFFF1
00000005
FFFFFFFB
FFFFFFF7
FFFFFFFE
0000000D
00000005
00000002
00000004
0000000B
0000000B
0000000C
00000009
00000004
FFFFFFFD
00000002
00000002
00000002
0000000E
FFFFFFF6
00000000
00000008
FFFFFFFD
00000001
0000000A
00000000
00000000
00000001
FFFFFFFC
FFFFFFFF
FFFFFFFB
FFFFFFFB
00000002
00000002
FFFFFFFE
00000005
00000006
FFFFFFFF
FFFFFFFF
00000001
00000001
FFFFFFFC
FFFFFFFC
00000010
FFFFFFFD
0000000C
00000000
00000010
FFFFFFFF
00000000
00000009
00000002
FFFFFFFC
00000004
00000001
FFFFFFF6
FFFFFFF8
FFFFFFFE
FFFFFFFF
00000001
FFFFFFF5
FFFFFFFA
00000000
00000004
00000003
FFFFFFFE
FFFFFFFD
00000004
00000008
00000000
00000002
00000012
FFFFFFF8
FFFFFFFA
00000002
00000005
00000001
FFFFFFF6
FFFFFFF8
00000001
FFFFFFFB
00000002
00000003
0000000B
00000006
00000003
00000000
FFFFFFFC
00000007
0000000B
FFFFFFFD
00000001
00000013
0000000A
FFFFFFFC
00000007
00000001
FFFFFFFB
FFFFFFFB
FFFFFFF9
00000002
FFFFFFF3
00000007
00000005
FFFFFFFD
00000001
00000004
FFFFFFFA
00000005
0000000A
00000009
00000002
00000011
FFFFFFF5
FFFFFFFF
00000003
FFFFFFF1
00000001
FFFFFFF3
00000001
FFFFFFFF
FFFFFFFA
FFFFFFFB
00000008
FFFFFFF6
FFFFFFF8
00000001
FFFFFFF9
00000012
FFFFFFF7
FFFFFFFE
FFFFFFFC
FFFFFFF4
FFFFFFF6
00000005
FFFFFFF8
00000004
FFFFFFFB
00000005
FFFFFFFD
FFFFFFFB
FFFFFFF9
FFFFFFFB
FFFFFFFD
FFFFFFFD
00000001
00000001
00000006
00000006
FFFFFFFE
FFFFFFF9
00000007
FFFFFFF7
FFFFFFEE
00000004
FFFFFFFE
00000007
0000000A
FFFFFFFB
FFFFFFF2
00000008
00000005
00000010
00000000
00000000
00000003
0000000A
FFFFFFFF
FFFFFFFF
FFFFFFFF
FFFFFFFC
00000008
FFFFFFFB
00000006
00000001
FFFFFFFE
00000006
FFFFFFF8
00000005
00000006
FFFFFFF3
FFFFFFF8
FFFFFFFB
00000008
00000002
FFFFFFFC
00000001
00000003
FFFFFFFE
FFFFFFFE
00000004
00000004
00000005
00000002
00000006
FFFFFFF8
0000000A
00000004
00000008
00000005
FFFFFFFD
00000000
FFFFFFF9
00000008
00000002
00000002
FFFFFFF9
00000002
FFFFFFFE
FFFFFFF6
00000001
FFFFFFF5
FFFFFFF8
00000000
00000001
FFFFFFF8
00000007
00000003
FFFFFFFA
00000000
00000014
FFFFFFFB
00000000
00000005
00000000
FFFFFFFD
FFFFFFFD
FFFFFFF7
00000000
FFFFFFEA
00000007
FFFFFFFD
FFFFFFFB
FFFFFFFD
FFFFFFFF
FFFFFFFE
00000005
00000010
FFFFFFF7
00000001
00000006
00000010
00000002
FFFFFFFA
FFFFFFFE
00000000
0000000A
FFFFFFF7
00000008
00000007
FFFFFFF7
00000005
FFFFFFFD
FFFFFFF3
00000001
00000001
00000005
00000004
FFFFFFF8
FFFFFFF4
FFFFFFFC
00000009
00000001
00000000
00000004
FFFFFFF8
FFFFFFFF
00000004
00000004
00000006
FFFFFFFF
0000000A
00000001
FFFFFFFC
0000000C
00000006
FFFFFFFF
FFFFFFFE
0000000B
00000009
FFFFFFF5
00000001
00000003
00000003
FFFFFFED
00000000
00000003
FFFFFFF8
00000002
00000007
0000000B
FFFFFFFB
FFFFFFF9
FFFFFFF9
FFFFFFEC
00000006
FFFFFFFD
00000014
00000003
00000000
00000008
00000005
00000000
FFFFFFF8
FFFFFFFA
FFFFFFFD
00000000
00000002
00000000
FFFFFFFD
FFFFFFFA
FFFFFFFF
00000001
00000000
00000005
00000000
FFFFFFFD
00000001
FFFFFFFD
FFFFFFFE
FFFFFFF8
00000001
00000002
00000001
00000000
FFFFFFFD
0000000A
00000010
FFFFFFFF
00000002
00000005
FFFFFFFB
00000009
FFFFFFF6
FFFFFFFE
FFFFFFFB
FFFFFFFF
00000005
00000003
00000006
00000001
00000000
00000001
00000000
FFFFFFFD
00000006
FFFFFFFD
00000004
0000000D
00000018
FFFFFFFC
FFFFFFFF
FFFFFFFE
00000006
00000002
FFFFFFF1
FFFFFFFC
00000000
FFFFFFFD
00000004
00000000
FFFFFFFF
FFFFFFFD
0000000A
FFFFFFFE
00000003
00000009
FFFFFFFF
00000010
FFFFFFEB
00000000
FFFFFFFE
FFFFFFF8
0000000A
FFFFFFFA
FFFFFFFE
00000001
FFFFFFFE
FFFFFFFA
FFFFFFFE
FFFFFFFB
0000000A
FFFFFFF7
00000003
00000003
00000002
00000001
00000004
FFFFFFFF
00000001
00000006
00000000
FFFFFFFB
0000000A
00000008
FFFFFFFD
FFFFFFFC
00000004
00000004
00000003
00000005
FFFFFFFD
00000001
FFFFFFFF
00000005
FFFFFFFD
FFFFFFF6
FFFFFFFE
00000005
FFFFFFF5
FFFFFFFD
00000003
00000003
00000003
00000002
FFFFFFFF
0000000A
00000005
00000004
FFFFFFF8
00000005
00000002
00000011
FFFFFFFA
00000004
FFFFFFF6
FFFFFFFF
0000000A
FFFFFFFE
FFFFFFFE
FFFFFFFD
00000007
00000000
00000000
00000008
0000000A
FFFFFFF6
FFFFFFEF
FFFFFFF3
FFFFFFFE
FFFFFFFC
00000004
00000000
0000000A
FFFFFFFE
FFFFFFFF
00000006
00000000
00000000
00000000
FFFFFFFD
FFFFFFF7
00000007
FFFFFFFF
0000000F
FFFFFFFD
00000005
00000003
FFFFFFF9
FFFFFFFE
FFFFFFF6
00000005
00000001
00000004
00000001
00000006
00000004
00000009
FFFFFFFA
00000001
FFFFFFFD
FFFFFFFE
00000008
00000006
FFFFFFFB
FFFFFFFE
00000012
FFFFFFFC
00000002
00000008
00000000
00000009
00000003
00000006
00000001
00000005
00000009
00000006
00000003
FFFFFFFB
00000005
FFFFFFFF
00000001
00000011
FFFFFFF9
00000001
00000009
0000000A
00000001
FFFFFFFE
FFFFFFFC
FFFFFFFE
FFFFFFFF
FFFFFFF4
00000002
00000004
FFFFFFFE
FFFFFFFF
FFFFFFFC
FFFFFFFA
FFFFFFFE
FFFFFFFC
FFFFFFF9
00000003
00000002
FFFFFFEE
00000001
00000003
FFFFFFFD
00000004
00000002
00000004
00000006
FFFFFFFC
00000004
00000006
00000004
00000006
00000004
00000002
0000000A
0000000C
0000000B
FFFFFFF9
00000005
FFFFFFFB
FFFFFFF9
FFFFFFF9
00000000
00000002
00000005
00000000
00000000
FFFFFFFF
FFFFFFFC
00000008
00000011
00000003
FFFFFFFF
00000005
FFFFFFFF
FFFFFFF9
FFFFFFFE
0000000F
00000008
00000007
00000006
00000006
00000002
00000001
00000000
00000001
00000001
0000000C
00000004
00000001
FFFFFFF9
FFFFFFF7
FFFFFFFB
00000004
00000001
00000001
FFFFFFFD
00000008
00000004
00000004
00000007
00000004
FFFFFFFD
00000007
FFFFFFFE
FFFFFFFF
0000000E
FFFFFFFB
FFFFFFFD
FFFFFFFF
FFFFFFFD
00000004
00000006
FFFFFFFE
00000009
00000004
00000004
00000009
FFFFFFFE
0000000B
00000002
00000003
00000002
00000000
FFFFFFFF
00000000
00000000
FFFFFFFC
00000004
0000000B
FFFFFFFB
00000002
FFFFFFFC
FFFFFFFC
FFFFFFFB
00000009
00000005
FFFFFFFD
00000001
FFFFFFFE
00000001
00000001
FFFFFFFE
00000006
00000010
00000009
00000002
00000001
00000006
FFFFFFFA
00000003
00000007
FFFFFFFC
00000003
FFFFFFFC
00000002
00000000
FFFFFFFF
00000003
00000003
00000004
0000000A
FFFFFFFF
00000000
00000006
00000002
0000000A
FFFFFFF2
FFFFFFFF
FFFFFFFC
FFFFFFFF
FFFFFFFF
00000008
00000006
00000000
FFFFFFFE
FFFFFFF9
00000007
00000003
FFFFFFFC
00000001
00000005
00000001
0000000F
00000006
00000000
00000000
FFFFFFF6
FFFFFFF9
FFFFFFFC
00000000
FFFFFFFB
0000000A
FFFFFFFD
FFFFFFFB
FFFFFFF8
00000000
FFFFFFFF
00000003
0000000B
FFFFFFFE
00000001
00000018
00000001
00000005
FFFFFFFF
00000006
00000007
00000005
0000000B
00000004
00000007
00000003
FFFFFFFC
0000000A
00000006
00000001
00000005
00000003
0000000B
FFFFFFF8
FFFFFFFD
00000003
00000005
00000004
FFFFFFFC
FFFFFFFF
FFFFFFFD
00000001
00000000
00000005
FFFFFFFE
FFFFFFFF
FFFFFFFC
FFFFFFFC
00000005
00000003
FFFFFFFC
00000003
00000001
FFFFFFFE
00000005
FFFFFFF3
00000000
00000003
FFFFFFFE
00000002
FFFFFFFF
00000001
00000000
00000003
00000003
00000005
FFFFFFFE
FFFFFFFD
00000000
0000000C
FFFFFFF9
00000008
00000005
00000002
00000005
FFFFFFFF
FFFFFFF6
FFFFFFFA
FFFFFFFB
00000003
00000005
FFFFFFFD
00000003
00000002
FFFFFFFF
FFFFFFF1
00000002
FFFFFFFF
00000006
FFFFFFFC
00000005
FFFFFFFB
FFFFFFFD
FFFFFFFF
00000000
FFFFFFFA
00000004
FFFFFFFF
FFFFFFFE
00000001
FFFFFFFC
00000002
FFFFFFFA
FFFFFFF8
00000002
FFFFFFFE
00000000
FFFFFFFB
0000000B
00000005
FFFFFFFC
00000000
00000006
FFFFFFFE
00000001
00000004
FFFFFFF8
FFFFFFFE
FFFFFFFD
00000002
00000008
00000004
FFFFFFFD
FFFFFFFC
00000002
00000004
FFFFFFFB
FFFFFFFE
0000000C
00000001
FFFFFFF8
00000003
00000003
FFFFFFFE
FFFFFFFF
00000006
00000005
00000000
FFFFFFFE
FFFFFFFC
FFFFFFF5
FFFFFFFF
00000001
FFFFFFFD
00000005
00000000
FFFFFFFE
00000002
00000003
FFFFFFF8
00000000
00000005
FFFFFFFE
FFFFFFFE
00000006
00000000
FFFFFFF9
00000005
00000007
0000000F
00000004
00000009
00000003
FFFFFFFB
FFFFFFF0
00000004
00000000
FFFFFFF8
FFFFFFFC
00000006
FFFFFFF8
FFFFFFF8
00000006
FFFFFFFF
00000002
FFFFFFF9
00000005
00000000
FFFFFFFF
00000004
FFFFFFFD
FFFFFFFA
00000008
FFFFFFFE
FFFFFFFE
FFFFFFFA
FFFFFFED
00000000
00000008
0000000B
FFFFFFFD
00000006
00000005
FFFFFFFB
00000000
00000009
FFFFFFFF
FFFFFFEC
00000002
00000001
FFFFFFF6
FFFFFFFC
FFFFFFFE
00000009
FFFFFFFE
FFFFFFF5
00000008
FFFFFFFC
00000004
00000005
00000001
00000003
00000004
FFFFFFFA
FFFFFFF1
FFFFFFFA
FFFFFFFD
FFFFFFF7
FFFFFFFE
00000003
0000000B
00000002
00000007
00000006
00000008
FFFFFFF8
FFFFFFF6
FFFFFFFF
00000004
00000007
0000000B
0000000D
00000005
0000000E
00000006
FFFFFFFC
0000000C
00000004
0000000E
00000004
FFFFFFFB
FFFFFFFD
00000008
FFFFFFFB
00000011
FFFFFFFC
FFFFFFFE
00000005
00000008
FFFFFFFB
00000005
FFFFFFFE
FFFFFFF6
FFFFFFF7
0000000C
FFFFFFFF
FFFFFFFC
00000006
00000003
FFFFFFFD
FFFFFFF8
FFFFFFFB
00000003
FFFFFFFE
0000000C
00000004
00000002
FFFFFFEA
FFFFFFF3
00000003
00000001
0000000D
FFFFFFF8
00000004
FFFFFFFA
FFFFFFF7
FFFFFFFA
00000001
00000002
00000005
FFFFFFFB
00000008
00000008
00000006
FFFFFFF6
00000000
FFFFFFFF
00000003
FFFFFFFA
00000000
00000001
FFFFFFFE
00000002
00000001
FFFFFFFC
FFFFFFFF
FFFFFFFD
FFFFFFF9
FFFFFFFB
00000002
00000001
00000001
FFFFFFFC
00000002
FFFFFFF9
FFFFFFFE
00000001
00000000
FFFFFFFA
FFFFFFFE
FFFFFFFF
FFFFFFFF
FFFFFFFE
00000000
FFFFFFFD
FFFFFFFA
00000003
FFFFFFFE
00000000
FFFFFFFB
00000003
FFFFFFFC
00000000
FFFFFFFC
00000001
FFFFFFFC
FFFFFFFD
FFFFFFF9
00000003
FFFFFFFE
FFFFFFFE
FFFFFFF9
00000000
FFFFFFFA
00000003
FFFFFFFF
FFFFFFFE
00000001
FFFFFFFF
FFFFFFFA
00000002
FFFFFFFC
FFFFFFFF
00000000
FFFFFFFC
00000002
00000002
00000000
FFFFFFFE
00000002
FFFFFFFB
FFFFFFFC
FFFFFFFD
00000001
FFFFFFFB
00000004
FFFFFFFA
FFFFFFFA
00000000
00000001
FFFFFFFB
FFFFFFFE
00000002
00000004
00000002
FFFFFFFC
00000000
FFFFFFFD
00000000
FFFFFFF8
00000000
FFFFFFF9
00000002
FFFFFFFF
00000001
FFFFFFFE
FFFFFFFB
FFFFFFFE
FFFFFFFD
FFFFFFFA
FFFFFFFC
FFFFFFFD
FFFFFFFF
FFFFFFFA
FFFFFFFF
FFFFFFFC
FFFFFFFA
FFFFFFFC
00000000
FFFFFFFC
00000001
FFFFFFFD
FFFFFFFE
FFFFFFFD
FFFFFFFE
00000001
FFFFFFFE
FFFFFFFC
FFFFFFFE
00000002
FFFFFFFA
00000003
00000000
00000001
FFFFFFFE
FFFFFFFF
FFFFFFFC
00000001
FFFFFFF8
FFFFFFFC
FFFFFFFF
00000001
FFFFFFFF
00000003
FFFFFFFC
00000004
00000004
00000000
00000001
FFFFFFFE
00000003
FFFFFFFC
FFFFFFFF
FFFFFFFD
00000002
FFFFFFFA
FFFFFFFC
FFFFFFFC
FFFFFFFE
00000001
FFFFFFFD
00000001
00000002
00000003
00000000
00000003
00000002
00000000
FFFFFFFD
FFFFFFFB
FFFFFFFC
FFFFFFFD
00000004
FFFFFFFD
00000003
00000000
00000002
00000001
FFFFFFFB
FFFFFFFF
00000001
00000002
FFFFFFFE
00000004
FFFFFFFE
FFFFFFFD
FFFFFFFD
FFFFFFFB
00000003
FFFFFFFE
FFFFFFFE
00000001
00000003
FFFFFFFB
00000002
FFFFFFFE
FFFFFFFE
FFFFFFFF
FFFFFFFE
FFFFFFFB
00000001
FFFFFFFA
00000001
00000000
FFFFFFFD
FFFFFFFC
FFFFFFFE
00000001
FFFFFFFB
FFFFFFFF
00000003
00000001
FFFFFFFF
00000002
FFFFFFFC
FFFFFFFD
00000000
FFFFFFFD
00000002
00000004
FFFFFFFB
FFFFFFFF
00000002
FFFFFFFB
FFFFFFFE
00000000
FFFFFFFE
00000000
00000002
FFFFFFFE
FFFFFFFC
FFFFFFFD
FFFFFFFF
FFFFFFFD
FFFFFFFD
00000003
00000000
FFFFFFFB
00000003
FFFFFFFB
FFFFFFFC
FFFFFFFE
FFFFFFFD
FFFFFFFC
FFFFFFFB
00000004
FFFFFFFB
FFFFFFFD
FFFFFFFD
00000002
00000002
FFFFFFFE
00000003
FFFFFFFD
FFFFFFFF
FFFFFFFC
FFFFFFFD
FFFFFFFD
FFFFFFFF
00000004
FFFFFFFE
FFFFFFFC
00000000
00000003
00000001
FFFFFFFC
FFFFFFFE
FFFFFFFB
FFFFFFFE
FFFFFFFE
FFFFFFFE
00000001
00000001
FFFFFFF2
FFFFFFF6
FFFFFFF9
00000005
FFFFFFFF
00000006
FFFFFFFC
00000006
00000001
00000000
00000004
00000003
00000004
00000007
00000005
FFFFFFFF
0000000E
00000000
00000003
00000007
FFFFFFFE
00000001
0000000F
FFFFFFFC
FFFFFFFC
00000007
00000005
0000000C
00000007
FFFFFFFD
FFFFFFFF
00000002
FFFFFFFA
FFFFFFF9
00000003
00000001
FFFFFFFA
FFFFFFFE
00000013
FFFFFFFF
FFFFFFFA
00000006
FFFFFFFB
00000002
FFFFFFF9
FFFFFFF8
00000007
FFFFFFF0
FFFFFFFF
00000006
FFFFFFF9
FFFFFFFE
FFFFFFF8
00000001
0000000B
00000009
FFFFFFFF
00000001
0000000A
0000000E
00000003
00000002
FFFFFFF7
00000007
FFFFFFFF
00000007
00000009
00000006
FFFFFFFC
FFFFFFFE
FFFFFFF7
FFFFFFFF
FFFFFFF8
FFFFFFF7
00000003
FFFFFFFC
00000005
FFFFFFFC
FFFFFFFB
FFFFFFF6
00000004
FFFFFFFE
00000004
00000007
0000000B
FFFFFFFC
FFFFFFFC
0000000A
00000001
00000004
FFFFFFFC
00000000
00000000
0000000B
00000004
00000008
00000007
FFFFFFF8
0000000A
FFFFFFFC
00000001
00000001
FFFFFFFE
00000007
00000009
FFFFFFF6
FFFFFFFB
FFFFFFF6
0000000E
00000009
FFFFFFFF
00000001
00000007
FFFFFFFB
FFFFFFFB
00000005
FFFFFFFA
00000003
00000000
0000000B
00000006
00000000
00000006
FFFFFFFF
FFFFFFFF
FFFFFFFD
FFFFFFFE
FFFFFFFC
FFFFFFF8
FFFFFFF8
FFFFFFFD
FFFFFFFE
00000000
FFFFFFF7
00000001
00000002
00000002
00000003
FFFFFFFF
00000002
00000003
00000001
FFFFFFF8
00000000
FFFFFFFE
00000000
FFFFFFFC
00000003
00000005
FFFFFFFB
00000000
00000000
00000011
00000003
FFFFFFFE
00000008
00000006
0000000D
FFFFFFFF
00000001
00000008
0000000A
00000002
00000002
00000009
FFFFFFFC
FFFFFFFA
0000000D
00000003
FFFFFFFE
FFFFFFFE
0000000B
00000008
00000012
00000005
0000000A
00000005
FFFFFFFE
00000003
00000004
00000003
00000006
00000004
FFFFFFFF
0000000A
00000004
00000000
FFFFFFF5
00000003
00000001
0000000A
00000003
FFFFFFF4
00000005
00000000
00000001
00000007
00000007
00000000
0000000C
FFFFFFF5
00000001
FFFFFFF7
FFFFFFFD
00000006
0000000A
00000006
FFFFFFFB
00000004
00000002
FFFFFFFC
0000000A
FFFFFFFE
FFFFFFFA
00000000
FFFFFFFA
00000002
FFFFFFFC
FFFFFFFF
00000002
00000003
00000012
00000002
00000004
FFFFFFF7
FFFFFFFF
FFFFFFFE
FFFFFFF7
FFFFFFFD
00000009
0000000E
FFFFFFFF
00000001
00000007
00000006
00000008
00000002
FFFFFFFF
00000003
00000005
0000000D
00000000
00000004
FFFFFFF8
FFFFFFFF
00000003
FFFFFFFF
00000005
00000001
00000003
00000001
00000002
00000005
00000002
00000007
FFFFFFF5
FFFFFFF5
00000000
FFFFFFFD
FFFFFFFB
00000000
00000002
00000002
00000009
00000002
FFFFFFFC
FFFFFFF8
00000004
00000006
FFFFFFFB
FFFFFFF3
FFFFFFFB
FFFFFFF7
FFFFFFF9
FFFFFFFC
00000005
FFFFFFFD
FFFFFFFD
0000000D
00000003
0000000F
00000007
00000006
00000011
FFFFFFFC
FFFFFFF8
FFFFFFF6
FFFFFFFF
FFFFFFFB
00000000
00000003
00000006
00000007
FFFFFFFE
00000004
00000007
0000000A
FFFFFFFB
FFFFFFFE
00000001
FFFFFFFF
00000003
0000000A
FFFFFFF6
FFFFFFFE
FFFFFFFD
FFFFFFFD
00000003
FFFFFFFC
FFFFFFF5
00000018
00000004
00000001
00000008
FFFFFFFC
0000000B
FFFFFFFD
FFFFFFF9
FFFFFFFE
00000006
FFFFFFF8
FFFFFFF9
00000003
FFFFFFFF
00000007
FFFFFFFE
FFFFFFF6
00000001
FFFFFFF9
FFFFFFFD
FFFFFFED
00000001
FFFFFFFF
FFFFFFEB
FFFFFFFE
00000002
FFFFFFFE
00000004
00000007
00000002
00000009
00000004
00000000
00000003
00000002
00000000
00000003
00000004
FFFFFFFE
00000005
00000006
0000000F
00000003
FFFFFFFB
00000002
0000000A
00000004
00000001
FFFFFFFB
FFFFFFFE
FFFFFFFF
FFFFFFFF
FFFFFFF5
FFFFFFF9
00000011
00000003
FFFFFFFE
00000005
00000003
00000009
00000000
FFFFFFFC
00000007
00000002
00000003
00000004
FFFFFFFF
00000005
FFFFFFF9
FFFFFFFE
FFFFFFFB
00000007
FFFFFFF9
00000002
00000008
00000006
00000009
00000003
FFFFFFFF
FFFFFFF9
0000000A
00000004
00000001
FFFFFFFF
00000002
FFFFFFFC
00000004
00000000
FFFFFFFB
FFFFFFFF
FFFFFFF8
00000005
00000006
FFFFFFFD
00000009
FFFFFFFD
00000004
00000006
00000008
00000001
00000001
FFFFFFFD
00000005
FFFFFFFF
00000006
FFFFFFFB
00000001
00000002
FFFFFFFB
FFFFFFFF
00000002
FFFFFFFE
FFFFFFF2
00000001
00000005
FFFFFFFE
FFFFFFFF
00000000
0000000A
FFFFFFFD
00000004
00000005
FFFFFFFF
FFFFFFFF
00000000
FFFFFFFF
00000000
00000004
00000001
FFFFFFF6
00000000
00000003
FFFFFFF5
FFFFFFFF
00000000
00000007
00000004
00000001
00000001
FFFFFFFF
FFFFFFFB
FFFFFFFE
00000005
FFFFFFFC
00000000
00000013
FFFFFFFD
00000001
FFFFFFFE
00000006
FFFFFFFF
00000010
00000004
00000004
00000007
00000005
00000000
00000005
FFFFFFFD
0000000F
00000007
00000001
FFFFFFFE
FFFFFFF9
00000002
FFFFFFFF
00000002
00000003
FFFFFFF6
0000000B
FFFFFFFB
00000005
00000005
0000000C
FFFFFFFF
00000000
00000003
00000001
FFFFFFFE
00000009
00000005
00000003
FFFFFFF1
FFFFFFFF
00000005
00000003
FFFFFFFF
00000006
FFFFFFFC
FFFFFFFB
FFFFFFFE
FFFFFFFC
FFFFFFFA
00000003
00000001
00000004
00000007
00000003
00000000
FFFFFFF6
00000003
FFFFFFFF
FFFFFFEF
FFFFFFF6
FFFFFFFC
00000002
00000006
00000003
FFFFFFFB
00000009
FFFFFFFE
00000004
00000002
FFFFFFFE
00000007
FFFFFFFF
FFFFFFFD
00000000
00000008
00000000
FFFFFFFF
FFFFFFFD
FFFFFFFE
00000003
00000004
FFFFFFFA
00000008
00000008
00000005
0000000E
00000006
00000000
FFFFFFFE
00000000
FFFFFFFE
FFFFFFFE
FFFFFFFF
00000004
00000005
FFFFFFFE
0000000C
00000004
FFFFFFFD
00000008
00000003
FFFFFFFD
FFFFFFF9
00000007
00000005
FFFFFFF0
00000003
FFFFFFFE
FFFFFFFE
FFFFFFFC
FFFFFFFD
00000000
0000000E
0000000A
FFFFFFFD
00000003
00000002
0000000C
FFFFFFFD
00000004
FFFFFFFD
00000003
FFFFFFFA
00000002
00000000
FFFFFFFF
00000002
00000000
FFFFFFFE
FFFFFFF4
FFFFFFFD
00000000
FFFFFFF2
00000002
00000001
FFFFFFED
FFFFFFFC
FFFFFFF9
FFFFFFFC
FFFFFFFF
00000006
FFFFFFFE
00000004
FFFFFFF3
FFFFFFFD
00000001
00000001
00000000
00000002
0000000A
FFFFFFFF
00000012
0000000C
00000004
FFFFFFFE
FFFFFFFE
00000004
FFFFFFFB
00000003
00000001
FFFFFFFE
00000000
00000006
FFFFFFFD
FFFFFFFA
FFFFFFF4
0000001B
00000010
00000001
00000004
00000005
FFFFFFFC
FFFFFFFC
00000003
0000000B
00000006
00000000
00000007
00000005
00000008
00000005
FFFFFFFE
00000007
00000004
FFFFFFFE
00000005
FFFFFFFB
FFFFFFFE
FFFFFFFF
FFFFFFFD
00000001
00000000
FFFFFFF8
00000005
00000002
00000004
00000000
00000002
00000005
FFFFFFF7
00000008
00000005
00000001
00000005
00000004
FFFFFFFE
00000000
FFFFFFFD
FFFFFFF6
00000000
FFFFFFFE
00000006
00000002
FFFFFFFB
00000004
FFFFFFFC
FFFFFFFC
00000002
FFFFFFFF
FFFFFFFA
00000002
00000001
00000004
00000000
00000008
FFFFFFF5
00000001
00000008
00000001
FFFFFFF7
FFFFFFFB
00000009
00000001
00000005
00000009
00000006
FFFFFFFF
FFFFFFFE
00000005
00000007
00000001
0000000A
00000001
FFFFFFFC
00000002
00000003
00000008
FFFFFFF9
00000005
FFFFFFFC
00000001
00000003
00000002
00000006
00000001
00000006
00000001
FFFFFFEE
00000002
00000000
0000000F
00000003
FFFFFFFF
FFFFFFF9
FFFFFFFC
00000009
00000000
FFFFFFFE
00000006
00000002
00000002
00000008
00000005
FFFFFFFA
FFFFFFFD
FFFFFFFA
00000004
00000003
00000001
00000002
00000001
FFFFFFFA
00000005
FFFFFFFE
FFFFFFF8
00000001
00000001
00000008
FFFFFFFF
00000000
FFFFFFFA
FFFFFFF9
00000006
00000001
00000004
00000008
FFFFFFF9
FFFFFFFC
FFFFFFFC
00000007
00000000
00000002
00000002
00000002
00000000
00000005
00000000
FFFFFFFF
FFFFFFFA
FFFFFFFE
00000002
FFFFFFFB
FFFFFFFE
00000005
FFFFFFF8
FFFFFFF3
00000001
00000001
00000002
00000002
FFFFFFF9
0000000B
00000002
00000003
0000000A
00000009
00000006
FFFFFFFF
00000006
00000004
00000006
FFFFFFF8
FFFFFFFD
00000004
00000001
0000000B
FFFFFFFA
FFFFFFFD
00000003
00000004
FFFFFFFE
00000002
00000006
00000005
00000008
00000006
FFFFFFFD
00000007
00000003
00000004
00000009
00000001
FFFFFFED
FFFFFFFD
FFFFFFFB
00000009
00000001
FFFFFFFA
FFFFFFFA
00000013
FFFFFFFC
FFFFFFF7
00000001
FFFFFFFA
00000005
00000003
00000000
00000001
FFFFFFFF
00000001
00000005
00000005
00000004
FFFFFFFB
FFFFFFFD
0000000A
00000003
FFFFFFFC
FFFFFFFA
00000006
00000006
00000004
00000008
00000005
00000006
00000004
FFFFFFFF
FFFFFFFD
FFFFFFE7
00000000
00000015
00000001
00000004
FFFFFFF5
00000008
FFFFFFFD
00000006
FFFFFFFA
FFFFFFF7
FFFFFFF4
FFFFFFFE
FFFFFFFA
00000002
FFFFFFFE
FFFFFFFD
00000015
FFFFFFFE
0000000B
00000006
00000005
FFFFFFFB
FFFFFFFD
FFFFFFFB
FFFFFFF9
FFFFFFFF
00000001
0000000A
00000007
00000005
FFFFFFFF
FFFFFFFD
FFFFFFFC
FFFFFFF8
0000000E
00000004
00000005
0000000C
FFFFFFFE
00000002
00000000
00000007
FFFFFFFE
00000007
00000006
00000002
00000004
00000007
FFFFFFFF
00000007
00000002
0000000A
FFFFFFFF
FFFFFFFD
FFFFFFFB
FFFFFFFE
FFFFFFFE
00000004
FFFFFFFD
00000000
00000001
FFFFFFFE
FFFFFFFC
FFFFFFFD
00000006
00000002
00000003
FFFFFFFF
00000004
00000005
00000005
FFFFFFFD
00000007
00000007
00000001
FFFFFFFF
FFFFFFF8
FFFFFFFC
00000003
00000004
00000002
00000005
FFFFFFF1
00000004
00000006
FFFFFFFD
FFFFFFFC
00000005
00000009
FFFFFFFF
00000002
00000000
FFFFFFF7
FFFFFFFA
00000006
FFFFFFFF
FFFFFFF4
FFFFFFF1
FFFFFFFB
00000006
FFFFFFEE
FFFFFFFE
00000000
00000004
00000005
00000006
FFFFFFFD
FFFFFFF7
FFFFFFFD
0000000B
00000004
0000000B
FFFFFFF8
00000007
FFFFFFFE
FFFFFFF6
00000000
00000000
0000000B
00000005
FFFFFFFB
FFFFFFFE
00000005
FFFFFFFB
FFFFFFE8
FFFFFFFD
00000006
FFFFFFE8
00000006
FFFFFFFF
0000000A
FFFFFFFF
FFFFFFFB
00000005
FFFFFFFA
FFFFFFFF
FFFFFFF8
00000007
FFFFFFF8
00000004
FFFFFFFF
00000005
00000005
FFFFFFFD
00000006
00000002
00000005
00000005
FFFFFFFB
00000001
00000003
00000006
FFFFFFFE
00000002
00000005
00000000
00000000
FFFFFFFE
FFFFFFFD
FFFFFFFE
FFFFFFF4
00000004
00000000
00000006
00000005
FFFFFFFB
00000008
00000002
FFFFFFF8
00000000
00000002
FFFFFFFF
00000008
FFFFFFFF
0000000A
00000008
00000002
00000008
FFFFFFF7
FFFFFFFF
FFFFFFFF
FFFFFFE8
FFFFFFFD
FFFFFFFA
FFFFFFFC
FFFFFFFB
FFFFFFFE
FFFFFFFD
00000007
FFFFFFFE
00000005
00000008
FFFFFFFF
00000005
00000006
00000000
FFFFFFFE
00000006
FFFFFFF7
00000002
00000001
FFFFFFFA
00000007
FFFFFFFF
00000001
0000000F
00000008
00000002
00000009
FFFFFFFE
00000009
00000000
FFFFFFFE
FFFFFFFE
00000002
00000005
00000001
00000006
00000002
00000009
0000000D
00000007
00000005
00000000
00000001
00000001
00000014
00000002
FFFFFFF4
00000009
FFFFFFFB
FFFFFFFD
FFFFFFFC
FFFFFFFB
00000004
00000017
00000006
FFFFFFFE
00000003
FFFFFFFF
0000000E
FFFFFFFF
00000006
00000007
0000000A
FFFFFFFD
FFFFFFFB
00000001
00000005
00000001
00000000
00000000
0000000B
00000002
FFFFFFFC
00000000
00000000
00000007
FFFFFFEB
FFFFFFFE
00000003
FFFFFFFE
FFFFFFFE
00000002
00000007
00000001
FFFFFFF6
FFFFFFFC
00000000
00000003
00000002
FFFFFFFC
00000004
FFFFFFFC
00000012
00000001
00000009
00000005
FFFFFFFC
FFFFFFFF
00000001
FFFFFFFC
FFFFFFFC
0000000D
FFFFFFFE
FFFFFFFE
00000003
FFFFFFFF
FFFFFFFF
00000013
00000007
00000003
00000005
00000013
00000002
00000000
0000000B
00000001
00000005
00000001
00000002
00000006
00000002
00000001
00000000
FFFFFFFF
00000001
00000002
FFFFFFFE
00000015
FFFFFFFF
00000005
00000003
00000004
FFFFFFFF
00000001
FFFFFFF8
00000009
00000003
FFFFFFF9
00000002
00000000
00000008
00000003
FFFFFFFE
FFFFFFEF
00000008
00000006
00000004
00000002
FFFFFFF9
00000004
00000007
FFFFFFF8
FFFFFFFD
FFFFFFFF
00000002
00000001
FFFFFFFB
00000002
FFFFFFFC
00000007
FFFFFFFB
00000000
FFFFFFFF
FFFFFFFD
00000003
00000003
0000000D
00000004
FFFFFFFC
FFFFFFFC
0000000B
0000000B
FFFFFFF9
00000003
0000000C
00000008
00000002
00000008
FFFFFFFC
00000005
FFFFFFFB
FFFFFFF1
FFFFFFF8
0000000E
00000001
00000003
FFFFFFF0
00000001
FFFFFFF7
FFFFFFFA
00000000
FFFFFFFA
00000000
00000005
00000006
00000009
00000005
FFFFFFFE
00000002
0000000A
00000007
00000011
00000006
FFFFFFFD
00000001
FFFFFFFE
00000001
FFFFFFFE
00000000
FFFFFFFA
00000004
00000006
FFFFFFFE
00000005
FFFFFFFF
00000003
FFFFFFFA
FFFFFFFF
FFFFFFF7
FFFFFFFD
FFFFFFFA
00000003
FFFFFFF2
00000006
00000008
FFFFFFFA
00000002
00000000
00000004
FFFFFFFF
00000004
00000008
FFFFFFFB
00000003
00000004
00000004
FFFFFFFD
FFFFFFFC
FFFFFFFE
FFFFFFFC
00000002
00000003
FFFFFFF6
00000000
FFFFFFF6
00000007
FFFFFFF7
FFFFFFF7
00000002
FFFFFFFF
FFFFFFFE
FFFFFFFA
0000000C
FFFFFFFC
00000008
0000000F
FFFFFFFC
FFFFFFFC
00000004
00000001
FFFFFFFD
00000006
00000008
FFFFFFFD
00000000
0000000D
00000008
00000003
00000014
0000000E
00000002
FFFFFFFD
FFFFFFFE
00000001
00000003
0000000A
00000002
FFFFFFFF
FFFFFFF4
FFFFFFFE
FFFFFFFE
00000000
FFFFFFFC
00000004
00000001
0000000B
00000000
00000003
00000000
FFFFFFF8
00000005
00000001
00000000
FFFFFFF2
00000000
FFFFFFFA
FFFFFFFB
FFFFFFFC
FFFFFFF9
FFFFFFFB
00000005
00000004
FFFFFFF7
FFFFFFFA
FFFFFFFD
00000009
00000004
FFFFFFFF
00000002
FFFFFFFE
FFFFFFF5
00000004
00000002
00000004
FFFFFFF9
00000003
00000005
FFFFFFFE
00000001
00000008
00000011
00000004
00000000
FFFFFFFF
00000000
00000007
00000011
0000000F
00000002
00000008
00000003
0000000B
0000000D
00000000
FFFFFFFC
00000003
00000000
00000004
FFFFFFFF
FFFFFFF9
FFFFFFF1
FFFFFFFC
00000004
00000006
0000000B
00000003
0000000D
FFFFFFF6
00000000
00000002
00000006
00000005
FFFFFFFE
FFFFFFFC
00000008
FFFFFFFB
00000000
FFFFFFFC
0000000E
00000006
FFFFFFFE
00000002
FFFFFFF9
FFFFFFF4
00000004
00000004
00000004
0000000E
00000001
00000001
FFFFFFFE
FFFFFFF9
FFFFFFFD
00000008
FFFFFFFE
00000005
00000002
00000005
00000007
FFFFFFFF
FFFFFFFF
00000002
FFFFFFFD
00000003
FFFFFFFE
00000001
FFFFFFFD
00000000
00000001
FFFFFFFD
00000002
FFFFFFFB
00000003
FFFFFFFB
FFFFFFFB
FFFFFFFA
00000003
00000004
FFFFFFFD
00000004
FFFFFFFC
00000003
00000003
00000000
FFFFFFF9
00000005
FFFFFFFC
00000006
FFFFFFFD
FFFFFFFD
00000000
FFFFFFFF
00000002
FFFFFFFA
FFFFFFFF
FFFFFFFD
FFFFFFFF
FFFFFFFC
00000001
FFFFFFFB
00000003
00000003
FFFFFFFF
FFFFFFFC
FFFFFFFC
00000004
FFFFFFFD
00000000
00000002
FFFFFFFC
00000000
00000003
FFFFFFFB
00000002
FFFFFFFF
FFFFFFFD
00000005
FFFFFFFE
FFFFFFFD
FFFFFFFF
FFFFFFFB
00000003
FFFFFFFE
00000001
FFFFFFFC
FFFFFFFE
FFFFFFFD
00000005
FFFFFFFE
FFFFFFFC
00000000
FFFFFFFB
FFFFFFFB
FFFFFFFD
00000001
FFFFFFFE
FFFFFFFC
00000003
FFFFFFFE
FFFFFFFD
00000003
FFFFFFFF
FFFFFFFB
FFFFFFFE
00000002
FFFFFFFD
FFFFFFFA
FFFFFFFD
00000002
FFFFFFFE
FFFFFFFF
FFFFFFFA
FFFFFFFC
FFFFFFFD
FFFFFFFC
FFFFFFFE
FFFFFFFE
FFFFFFFC
00000000
FFFFFFFD
FFFFFFFD
00000003
FFFFFFFC
00000002
FFFFFFFF
FFFFFFFC
FFFFFFFC
00000003
00000000
00000002
00000001
00000000
FFFFFFFA
00000002
FFFFFFFC
00000001
00000000
00000002
00000005
FFFFFFFE
00000001
FFFFFFFE
00000002
FFFFFFFE
00000002
00000001
FFFFFFFB
00000000
FFFFFFFE
00000000
0000000F
0000000D
FFFFFFFF
00000004
FFFFFFFF
00000008
FFFFFFF8
00000002
FFFFFFFF
FFFFFFFC
00000004
00000003
00000004
00000004
0000000C
FFFFFFFE
00000003
00000000
FFFFFFFF
00000004
00000002
0000000C
FFFFFFFE
00000010
FFFFFFF5
00000006
FFFFFFFF
00000003
00000001
00000001
FFFFFFF6
00000004
FFFFFFFC
00000003
00000001
FFFFFFFA
FFFFFFFD
FFFFFFFD
00000003
FFFFFFFB
00000004
00000002
FFFFFFFA
FFFFFFFD
FFFFFFF6
FFFFFFFB
00000000
00000005
FFFFFFFA
FFFFFFF3
00000006
00000005
FFFFFFFD
00000001
00000007
00000009
FFFFFFF1
00000005
00000003
00000003
FFFFFFF6
00000000
00000009
00000001
00000001
00000011
0000000D
00000003
FFFFFFFD
00000005
00000006
FFFFFFFE
00000007
00000009
00000000
0000000B
00000002
00000003
00000006
FFFFFFFD
00000001
00000004
FFFFFFFA
00000002
FFFFFFFF
00000007
0000000A
FFFFFFFC
00000002
00000000
00000003
00000002
00000005
00000002
FFFFFFFB
FFFFFFF6
00000009
00000009
FFFFFFFC
0000000B
0000000E
FFFFFFFF
FFFFFFFE
FFFFFFFB
00000007
FFFFFFFF
FFFFFFFA
00000002
FFFFFFF6
FFFFFFFD
00000003
FFFFFFFD
FFFFFFFF
00000003
FFFFFFFF
00000002
FFFFFFF8
FFFFFFFA
00000005
00000009
00000007
00000003
0000000C
00000001
00000002
00000000
FFFFFFF9
FFFFFFF9
FFFFFFFE
00000003
FFFFFFFB
FFFFFFFB
00000004
00000000
00000002
00000000
00000005
00000000
00000002
00000002
00000002
FFFFFFFC
FFFFFFFE
FFFFFFFA
FFFFFFFF
FFFFFFFD
00000002
FFFFFFFA
FFFFFFFF
FFFFFFFD
FFFFFFFE
FFFFFFFB
FFFFFFFB
00000001
FFFFFFFE
FFFFFFFD
FFFFFFFB
00000002
FFFFFFFD
00000000
FFFFFFFF
FFFFFFFD
FFFFFFFC
FFFFFFFC
FFFFFFF9
00000001
FFFFFFFD
FFFFFFFB
00000001
00000000
FFFFFFFE
FFFFFFFF
FFFFFFFE
00000003
00000001
00000002
00000000
FFFFFFFB
FFFFFFFB
00000002
FFFFFFFE
FFFFFFFB
00000002
FFFFFFFE
FFFFFFFC
FFFFFFFB
FFFFFFFB
FFFFFFFD
00000000
FFFFFFFB
00000004
FFFFFFFF
00000003
FFFFFFFA
FFFFFFFB
00000001
FFFFFFFE
FFFFFFFE
00000003
FFFFFFFB
00000001
FFFFFFFD
FFFFFFFB
00000001
FFFFFFFC
FFFFFFFE
FFFFFFFB
FFFFFFFF
00000000
00000002
FFFFFFFB
FFFFFFFE
00000000
FFFFFFFD
00000000
00000002
00000000
FFFFFFFC
FFFFFFFF
00000000
FFFFFFFB
FFFFFFFB
FFFFFFFD
FFFFFFFB
00000004
00000000
00000001
FFFFFFFC
FFFFFFFC
FFFFFFFE
FFFFFFFF
00000000
00000000
00000000
FFFFFFFC
FFFFFFFF
FFFFFFFF
00000003
FFFFFFFE
FFFFFFFD
FFFFFFFD
FFFFFFFE
FFFFFFFA
FFFFFFFD
FFFFFFFF
FFFFFFFB
FFFFFFFA
FFFFFFFA
00000002
FFFFFFFF
00000000
FFFFFFFF
FFFFFFFF
FFFFFFFE
FFFFFFFC
00000000
FFFFFFFE
00000013
0000000E
00000003
00000004
00000005
00000009
00000009
FFFFFFFC
FFFFFFFF
00000001
FFFFFFFF
FFFFFFFE
FFFFFFFE
0000000D
FFFFFFFF
FFFFFFFF
0000000A
00000002
00000005
00000000
00000004
00000005
0000000F
FFFFFFFD
FFFFFFF3
FFFFFFF4
00000003
FFFFFFFD
FFFFFFFF
00000009
FFFFFFFD
FFFFFFFA
FFFFFFFB
FFFFFFF6
FFFFFFFF
00000007
FFFFFFF9
FFFFFFFF
00000005
00000008
00000005
FFFFFFFD
00000000
FFFFFFFF
00000004
FFFFFFE5
00000004
00000000
00000000
00000008
00000006
00000003
00000001
00000002
00000005
FFFFFFFF
FFFFFFFC
00000005
00000001
00000001
00000005
FFFFFFFD
FFFFFFF6
FFFFFFFE
00000012
FFFFFFFE
00000003
FFFFFFFE
FFFFFFF7
FFFFFFFD
FFFFFFFE
0000000A
00000009
FFFFFFFF
0000001B
00000002
FFFFFFF6
00000008
00000004
00000007
FFFFFFFD
00000007
00000005
FFFFFFFF
00000006
00000006
00000007
00000007
00000003
0000000C
00000002
FFFFFFF8
FFFFFFFE
FFFFFFEE
FFFFFFFD
FFFFFFFE
00000009
00000004
00000000
0000000C
FFFFFFFC
FFFFFFFA
FFFFFFF1
00000009
00000001
FFFFFFFE
00000003
00000004
FFFFFFF8
FFFFFFFB
FFFFFFFB
00000002
00000003
FFFFFFFA
FFFFFFFC
00000009
FFFFFFF6
00000005
00000005
FFFFFFFF
00000005
00000003
00000000
00000005
00000000
00000003
FFFFFFFC
FFFFFFF3
FFFFFFF5
FFFFFFFA
00000002
FFFFFFFE
00000002
00000002
00000001
00000002
00000004
00000002
00000000
FFFFFFFF
FFFFFFFF
00000000
00000007
00000004
FFFFFFFD
FFFFFFFC
FFFFFFFE
00000001
FFFFFFFA
00000005
FFFFFFF4
00000002
00000000
00000004
00000003
00000000
00000000
FFFFFFFF
00000004
00000003
00000001
00000004
00000000
00000003
00000005
00000000
FFFFFFFE
FFFFFFFE
00000000
00000000
00000003
00000007
00000007
0000000E
00000005
00000003
00000005
FFFFFFFF
FFFFFFFF
FFFFFFFE
FFFFFFFE
00000000
FFFFFFF8
00000001
00000005
00000003
00000003
00000004
00000005
00000005
00000001
00000000
FFFFFFFB
FFFFFFFE
00000001
00000003
00000005
00000000
00000002
FFFFFFF7
00000006
00000005
FFFFFFE9
00000001
00000005
FFFFFFF7
00000005
FFFFFFF8
FFFFFFFE
FFFFFFFC
FFFFFFFE
FFFFFFF9
FFFFFFFD
FFFFFFF4
FFFFFFFB
FFFFFFFF
00000007
00000001
00000003
00000004
FFFFFFFC
00000008
0000000A
00000003
00000005
FFFFFFF8
00000000
00000005
00000001
00000009
00000003
00000005
00000002
FFFFFFFF
FFFFFFF8
FFFFFFFC
0000000E
00000000
FFFFFFFF
FFFFFFFF
FFFFFFFE
00000007
FFFFFFFD
00000002
00000009
FFFFFFF9
00000003
00000004
FFFFFFFA
00000000
00000001
00000007
FFFFFFFA
FFFFFFFD
00000007
00000003
00000009
FFFFFFFE
00000006
FFFFFFFF
00000005
FFFFFFFC
FFFFFFFC
FFFFFFF6
00000009
FFFFFFFF
FFFFFFF9
FFFFFFFC
FFFFFFFA
FFFFFFF7
00000002
00000003
FFFFFFFD
00000009
FFFFFFFC
00000007
FFFFFFFF
FFFFFFF8
00000004
0000000B
00000004
FFFFFFFC
FFFFFFFB
0000000A
00000001
00000003
FFFFFFF5
FFFFFFFB
00000008
FFFFFFFA
00000004
FFFFFFFA
FFFFFFFA
FFFFFFFE
00000012
0000000E
0000000A
FFFFFFFE
00000000
FFFFFFFE
00000006
FFFFFFFE
00000008
00000011
00000009
00000001
FFFFFFFE
00000005
00000006
00000008
00000006
00000009
00000000
FFFFFFFA
FFFFFFFC
FFFFFFF8
00000002
FFFFFFF8
FFFFFFFD
FFFFFFFE
FFFFFFFE
FFFFFFFC
00000003
00000001
00000004
00000004
FFFFFFF8
FFFFFFFC
00000006
00000006
00000014
FFFFFFFE
FFFFFFF4
FFFFFFF5
FFFFFFF9
00000011
00000000
FFFFFFFB
00000002
FFFFFFFF
00000000
00000018
00000005
00000002
FFFFFFFE
FFFFFFF8
00000001
FFFFFFF3
00000008
00000007
00000006
FFFFFFF3
00000007
00000000
FFFFFFFA
00000007
00000001
00000000
FFFFFFFE
FFFFFFF5
FFFFFFFD
FFFFFFFD
0000000A
0000000D
00000000
00000004
FFFFFFF4
FFFFFFFD
FFFFFFFA
00000007
00000003
FFFFFFFF
FFFFFFFF
FFFFFFFE
00000000
00000001
FFFFFFF8
00000009
FFFFFFFC
00000002
FFFFFFF9
00000009
FFFFFFF4
00000000
00000005
FFFFFFF6
FFFFFFFD
FFFFFFFB
00000006
00000007
FFFFFFF8
FFFFFFFC
00000007
00000002
FFFFFFFC
FFFFFFFF
00000002
0000000B
00000006
00000002
0000000F
00000000
00000000
00000001
00000004
00000003
FFFFFFF8
FFFFFFFB
00000001
00000000
00000002
00000006
00000002
00000007
00000005
00000000
00000004
FFFFFFFE
00000000
0000000A
00000002
FFFFFFFF
00000004
00000004
FFFFFFFC
FFFFFFFE
00000003
FFFFFFFC
FFFFFFFC
FFFFFFFB
00000001
00000002
FFFFFFFC
00000004
00000003
00000000
FFFFFFFD
00000009
FFFFFFF1
00000006
00000006
FFFFFFFC
00000013
FFFFFFF5
00000002
FFFFFFFD
FFFFFFFB
FFFFFFFD
00000001
00000009
00000004
00000000
FFFFFFFA
FFFFFFFF
FFFFFFFF
00000006
00000009
00000006
FFFFFFF9
FFFFFFFD
FFFFFFFF
00000001
00000001
FFFFFFFA
00000005
FFFFFFFE
00000007
FFFFFFFF
00000005
FFFFFFF5
00000001
0000000B
FFFFFFFE
00000004
00000004
00000004
00000004
FFFFFFFB
0000000A
FFFFFFF8
00000002
FFFFFFF5
FFFFFFFD
FFFFFFEF
00000003
FFFFFFFC
00000001
0000000C
FFFFFFFE
FFFFFFFA
00000000
00000003
FFFFFFFA
00000008
00000003
00000003
00000003
FFFFFFFB
FFFFFFFF
FFFFFFFD
FFFFFFFC
00000008
00000009
00000004
FFFFFFFB
00000009
00000007
FFFFFFFD
00000005
00000012
FFFFFFFB
FFFFFFFC
FFFFFFF3
00000000
FFFFFFFB
FFFFFFFD
00000007
FFFFFFFE
00000007
00000006
00000006
FFFFFFFD
00000002
FFFFFFFE
00000005
00000006
00000007
FFFFFFFF
FFFFFFFB
FFFFFFFD
00000006
00000002
00000003
FFFFFFFF
FFFFFFFB
FFFFFFFB
00000003
00000002
00000000
00000003
00000003
FFFFFFF6
00000005
00000002
FFFFFFFE
00000001
00000002
FFFFFFFF
FFFFFFFE
FFFFFFFC
0000000A
FFFFFFFD
00000003
FFFFFFFE
00000003
00000006
FFFFFFFC
00000009
00000004
FFFFFFF6
FFFFFFFE
FFFFFFFD
00000003
00000003
00000001
FFFFFFF8
00000006
FFFFFFFF
00000002
00000005
00000000
0000000C
00000005
00000002
FFFFFFFA
FFFFFFFD
FFFFFFF9
00000009
FFFFFFFF
00000000
00000007
00000006
00000006
FFFFFFF8
00000007
00000001
FFFFFFE9
00000003
00000007
FFFFFFF7
FFFFFFFE
FFFFFFF3
FFFFFFFA
00000003
00000003
FFFFFFF7
00000006
FFFFFFF2
FFFFFFFE
FFFFFFFC
00000006
00000000
FFFFFFFE
00000004
FFFFFFFE
0000000C
00000008
00000007
00000008
00000000
0000000A
00000009
00000003
00000009
00000002
00000003
00000003
FFFFFFF9
FFFFFFF5
FFFFFFF3
00000010
00000005
00000003
00000006
FFFFFFFF
00000007
00000000
FFFFFFFF
00000007
FFFFFFFC
FFFFFFFF
00000000
00000004
00000000
FFFFFFFE
00000003
FFFFFFFB
00000000
00000001
FFFFFFF3
FFFFFFFE
00000004
FFFFFFFF
FFFFFFFB
00000002
00000006
00000007
FFFFFFF8
00000002
00000001
FFFFFFF9
00000004
00000002
FFFFFFF5
00000002
00000002
00000005
00000004
00000001
00000008
FFFFFFFD
FFFFFFFE
00000000
00000005
FFFFFFFA
FFFFFFFC
00000003
FFFFFFFF
00000006
FFFFFFFC
FFFFFFFB
00000004
00000002
FFFFFFFC
00000004
00000000
00000001
FFFFFFFE
00000010
00000001
00000009
00000009
FFFFFFFE
0000000C
00000009
FFFFFFE8
00000000
FFFFFFFE
00000008
00000003
FFFFFFFE
FFFFFFFE
00000003
FFFFFFFA
FFFFFFFD
0000000A
FFFFFFFF
00000001
00000005
00000016
FFFFFFFF
FFFFFFF3
FFFFFFF3
FFFFFFFD
00000002
FFFFFFF4
00000007
FFFFFFFF
FFFFFFF8
FFFFFFFC
00000000
FFFFFFF2
FFFFFFF7
00000001
FFFFFFF5
00000001
FFFFFFF7
FFFFFFFC
00000008
FFFFFFFF
00000004
00000006
00000001
FFFFFFFC
0000000B
00000003
00000005
00000007
00000001
00000006
00000002
FFFFFFFC
00000000
FFFFFFFC
00000003
FFFFFFFD
00000007
00000007
00000005
00000002
00000004
00000005
FFFFFFF9
00000002
0000000A
FFFFFFFD
FFFFFFFC
00000003
0000000B
FFFFFFF7
00000003
00000004
FFFFFFED
00000002
00000000
00000010
FFFFFFFF
FFFFFFFD
FFFFFFFB
FFFFFFFF
00000003
00000000
00000006
00000001
FFFFFFFC
0000000A
00000003
00000003
FFFFFFF3
FFFFFFFA
00000002
00000001
00000002
FFFFFFFF
FFFFFFF6
FFFFFFFA
00000008
FFFFFFFE
FFFFFFFD
00000004
00000004
FFFFFFF5
FFFFFFFA
00000002
00000003
0000000C
FFFFFFFD
00000008
00000002
FFFFFFFD
00000004
00000003
00000009
00000007
FFFFFFFC
00000007
FFFFFFFF
00000006
FFFFFFF8
00000007
00000006
00000003
0000000C
00000002
00000001
00000003
00000015
00000009
FFFFFFFF
00000007
00000003
00000002
00000000
00000005
00000006
0000000D
0000000B
00000009
00000001
00000004
0000000A
00000007
00000007
00000013
0000000B
00000000
0000000B
FFFFFFF6
00000008
FFFFFFFB
00000003
00000008
FFFFFFF6
00000002
00000005
00000007
00000004
00000005
FFFFFFF8
FFFFFFF3
FFFFFFF6
00000006
FFFFFFFE
FFFFFFFF
FFFFFFFC
FFFFFFFD
00000002
00000005
00000006
FFFFFFFE
FFFFFFFD
0000000B
00000006
0000000D
00000008
FFFFFFFB
FFFFFFFA
FFFFFFF8
FFFFFFFC
FFFFFFFB
0000000C
00000010
00000008
FFFFFFF7
FFFFFFEF
00000002
FFFFFFFE
FFFFFFED
FFFFFFFF
00000008
00000009
FFFFFFFC
FFFFFFFD
FFFFFFFC
00000006
00000004
00000012
00000000
00000003
00000002
FFFFFFFF
00000001
FFFFFFFE
00000002
00000007
00000004
00000001
00000003
00000000
00000000
FFFFFFFA
00000000
00000006
00000004
FFFFFFFA
