FFFFFFF9
FFFFFFF7
FFFFFFFB
00000003
00000006
00000005
00000000
FFFFFFFD
FFFFFFFA
FFFFFFFD
FFFFFFFE
00000002
FFFFFFF2
FFFFFFF6
00000007
FFFFFFFB
FFFFFFF9
00000009
0000000A
FFFFFFFC
FFFFFFFC
00000008
00000006
00000002
00000007
00000003
FFFFFFFF
00000008
00000007
FFFFFFFC
00000009
00000008
00000008
FFFFFFF2
FFFFFFFB
00000003
FFFFFFF2
FFFFFFF5
FFFFFFF7
00000009
00000008
00000002
FFFFFFFF
FFFFFFEB
00000009
FFFFFFF7
0000000A
FFFFFFF1
FFFFFFFD
00000003
FFFFFFF5
00000003
00000001
00000005
FFFFFFFB
FFFFFFF2
00000001
FFFFFFF2
00000002
FFFFFFFA
FFFFFFEF
00000000
FFFFFFFC
FFFFFFFA
00000003
00000007
00000001
FFFFFFF2
FFFFFFF3
FFFFFFFF
FFFFFFF3
00000003
00000000
00000008
00000001
FFFFFFEE
FFFFFFFE
0000000A
FFFFFFF4
00000005
00000006
FFFFFFFA
00000007
FFFFFFF4
FFFFFFF3
FFFFFFF9
0000000C
00000004
0000000D
00000005
FFFFFFF5
00000001
FFFFFFF7
0000000A
FFFFFFF8
FFFFFFFE
FFFFFFF7
FFFFFFF7
0000000A
0000000B
FFFFFFFE
00000004
00000004
00000003
00000005
FFFFFFFE
00000006
00000009
FFFFFFF4
FFFFFFF8
FFFFFFF4
00000004
00000008
FFFFFFFB
FFFFFFF6
00000007
FFFFFFFD
00000003
00000005
00000001
00000003
00000009
FFFFFFF8
00000009
00000001
FFFFFFFE
FFFFFFFF
FFFFFFFE
FFFFFFFA
FFFFFFF3
00000009
FFFFFFFD
FFFFFFF9
00000001
00000007
FFFFFFF3
FFFFFFF4
FFFFFFFD
FFFFFFFB
FFFFFFF8
00000004
FFFFFFF1
00000005
00000007
00000007
0000000A
FFFFFFFF
00000004
00000008
00000006
00000006
00000000
00000003
00000004
FFFFFFF7
FFFFFFF6
00000000
FFFFFFFB
00000005
FFFFFFFA
FFFFFFF0
00000004
FFFFFFEB
0000000A
FFFFFFFB
0000000A
00000004
FFFFFFF5
FFFFFFFA
FFFFFFFF
FFFFFFFF
FFFFFFFD
00000003
0000000C
FFFFFFFE
00000006
FFFFFFF9
00000003
FFFFFFF3
0000000D
FFFFFFFC
FFFFFFFC
FFFFFFFD
FFFFFFF7
FFFFFFFD
FFFFFFF7
00000009
00000005
00000000
00000005
00000007
FFFFFFFB
FFFFFFFD
FFFFFFFC
FFFFFFF4
00000007
FFFFFFFE
FFFFFFFA
FFFFFFFF
00000005
FFFFFFF4
00000000
FFFFFFFC
00000000
00000000
FFFFFFF2
FFFFFFF5
00000006
FFFFFFFF
FFFFFFF8
FFFFFFEE
FFFFFFF8
FFFFFFF6
FFFFFFFE
00000007
00000001
FFFFFFF6
00000004
FFFFFFFB
00000006
00000002
FFFFFFF7
FFFFFFF6
00000004
00000003
00000004
0000000B
FFFFFFF0
0000000A
FFFFFFFB
00000002
00000000
FFFFFFF4
FFFFFFFD
FFFFFFFA
00000005
00000004
00000007
FFFFFFFF
0000000B
FFFFFFFC
00000002
0000000C
00000005
FFFFFFFB
00000003
FFFFFFFE
00000008
FFFFFFFB
FFFFFFF6
00000002
FFFFFFEE
00000003
00000009
FFFFFFF4
00000007
00000003
00000005
00000004
00000002
00000003
FFFFFFFC
00000006
FFFFFFFA
00000002
FFFFFFF3
0000000A
FFFFFFFD
FFFFFFF2
0000000C
FFFFFFFB
FFFFFFFC
FFFFFFF4
00000000
FFFFFFFE
FFFFFFF5
FFFFFFF7
FFFFFFFF
FFFFFFF4
00000001
FFFFFFF7
FFFFFFFE
00000000
FFFFFFF3
FFFFFFFE
00000014
00000002
FFFFFFFE
00000006
00000007
00000008
0000000B
0000000C
00000005
FFFFFFF7
00000008
FFFFFFF9
FFFFFFFC
00000002
00000003
00000001
FFFFFFFD
00000001
FFFFFFF0
FFFFFFF7
FFFFFFEB
00000000
FFFFFFF1
00000007
FFFFFFED
00000003
FFFFFFF3
00000004
00000008
FFFFFFFA
00000008
00000002
FFFFFFF2
00000011
00000009
FFFFFFFD
00000003
00000009
FFFFFFFA
00000005
FFFFFFFC
FFFFFFFF
0000000C
0000000B
FFFFFFFE
00000008
FFFFFFFE
00000008
FFFFFFF8
FFFFFFFD
FFFFFFFD
0000000A
FFFFFFF1
FFFFFFF9
00000007
FFFFFFFE
00000006
00000001
FFFFFFFF
FFFFFFF1
00000001
FFFFFFF6
FFFFFFFD
00000002
0000000C
FFFFFFF6
FFFFFFF6
00000007
00000006
FFFFFFF8
FFFFFFEF
00000004
FFFFFFF0
00000001
FFFFFFFA
00000008
FFFFFFFB
00000001
FFFFFFF9
00000001
00000000
00000006
FFFFFFF6
FFFFFFEB
00000000
FFFFFFFC
FFFFFFFC
FFFFFFFE
0000000B
FFFFFFFC
0000000D
FFFFFFFA
0000000C
FFFFFFF4
FFFFFFF3
00000004
FFFFFFF7
FFFFFFF1
FFFFFFF0
FFFFFFFF
FFFFFFF0
00000007
FFFFFFFA
0000000C
00000004
00000003
FFFFFFFA
FFFFFFFC
00000005
00000009
FFFFFFF5
FFFFFFEC
00000004
00000006
00000002
FFFFFFFF
00000000
00000000
00000005
0000000B
FFFFFFF8
FFFFFFF9
00000000
FFFFFFF3
00000002
FFFFFFF1
FFFFFFFF
00000001
FFFFFFF8
00000007
0000000C
0000000A
FFFFFFF6
FFFFFFF2
FFFFFFFD
FFFFFFE9
FFFFFFF6
FFFFFFED
FFFFFFFF
00000003
00000004
FFFFFFFD
FFFFFFF3
FFFFFFF6
00000005
00000001
FFFFFFF4
FFFFFFFE
FFFFFFF6
00000003
FFFFFFF0
0000000D
00000005
FFFFFFFD
00000009
00000002
00000006
00000008
00000008
FFFFFFFF
00000008
00000003
FFFFFFED
00000000
FFFFFFFF
FFFFFFF9
0000000C
FFFFFFF2
00000001
FFFFFFF4
00000007
FFFFFFF4
FFFFFFF6
FFFFFFF2
00000003
00000006
00000000
FFFFFFF4
00000009
FFFFFFF4
FFFFFFF6
0000000D
FFFFFFF9
FFFFFFF6
FFFFFFFA
0000000B
00000003
0000000B
FFFFFFFB
00000005
FFFFFFF4
FFFFFFF3
00000004
00000007
FFFFFFF7
FFFFFFFE
00000008
FFFFFFF5
00000007
FFFFFFFB
FFFFFFF6
FFFFFFFE
FFFFFFF9
00000013
FFFFFFFD
FFFFFFFB
FFFFFFFC
00000003
0000000E
00000009
00000001
00000008
FFFFFFF6
FFFFFFF4
00000004
FFFFFFF9
FFFFFFF1
FFFFFFFE
00000006
00000004
FFFFFFF5
FFFFFFF7
0000000B
FFFFFFEE
FFFFFFFB
FFFFFFFE
0000000A
FFFFFFFF
00000000
00000000
00000006
00000001
00000004
FFFFFFEA
00000007
0000000A
0000000A
00000009
00000003
FFFFFFF5
FFFFFFFE
00000008
FFFFFFFE
00000005
FFFFFFFF
00000000
0000000B
00000006
FFFFFFFC
FFFFFFFB
FFFFFFF9
FFFFFFF0
00000001
00000003
00000002
FFFFFFF5
FFFFFFF3
00000009
FFFFFFF4
00000005
00000005
FFFFFFF6
00000005
FFFFFFF5
FFFFFFFF
FFFFFFFC
00000005
FFFFFFEA
FFFFFFFE
00000004
FFFFFFFE
FFFFFFFB
FFFFFFFC
FFFFFFFF
00000003
00000006
00000003
0000000C
FFFFFFFA
FFFFFFEC
FFFFFFFF
FFFFFFF8
00000001
FFFFFFFE
FFFFFFFB
00000000
FFFFFFEE
00000002
00000002
00000002
FFFFFFFD
FFFFFFFC
00000009
FFFFFFEC
FFFFFFFB
0000000C
00000007
00000007
00000000
00000006
FFFFFFFC
00000002
00000003
00000005
00000009
FFFFFFF9
FFFFFFE2
00000001
FFFFFFFF
FFFFFFFB
FFFFFFEF
00000001
00000004
FFFFFFF6
00000003
00000003
00000002
0000000C
FFFFFFFC
FFFFFFF7
FFFFFFF8
00000003
FFFFFFF5
00000002
FFFFFFFE
0000000C
FFFFFFFC
00000004
00000000
00000006
FFFFFFF6
FFFFFFF4
00000002
00000005
FFFFFFF1
00000007
FFFFFFEB
FFFFFFFE
FFFFFFFC
00000004
00000003
FFFFFFFF
FFFFFFF9
00000002
00000000
FFFFFFFD
FFFFFFFE
FFFFFFFB
FFFFFFED
00000006
00000007
00000008
FFFFFFF7
FFFFFFEE
0000000A
